{
  "vocab": {
    "gracie": 19005,
    "##hila": 26415,
    "feeling": 3110,
    "amc": 21962,
    "loaded": 8209,
    "virginia": 3448,
    "\u30b9": 1707,
    "##bial": 21102,
    "##ked": 8126,
    "##her": 5886,
    "gary": 5639,
    "hassan": 13222,
    "shifting": 9564,
    "outright": 13848,
    "##cellular": 16882,
    "darker": 9904,
    "primaries": 27419,
    "accomplishments": 17571,
    "vox": 29450,
    "campuses": 13696,
    "nevada": 7756,
    "controversy": 6704,
    "backgrounds": 15406,
    "amherst": 19850,
    "##asia": 15396,
    "automotive": 12945,
    "deserts": 28858,
    "pam": 14089,
    "orgasm": 13892,
    "sammy": 14450,
    "situation": 3663,
    "despite": 2750,
    "ascot": 29036,
    "##\u535a": 30312,
    "biting": 12344,
    "overall": 3452,
    "\u5730": 1802,
    "nucleus": 13502,
    "reacher": 22970,
    "info": 18558,
    "##\u0926": 29861,
    "edict": 24754,
    "shiver": 13277,
    "##rch": 11140,
    "harding": 15456,
    "harlem": 14864,
    "193": 19984,
    "\u05e9": 1266,
    "##phobic": 20200,
    "eighteen": 7763,
    "hesitate": 16390,
    "\u091c": 1319,
    "airplanes": 24042,
    "assists": 8456,
    "##lock": 7878,
    "extant": 12905,
    "##ipe": 15457,
    "warwick": 13283,
    "##\u116e": 30014,
    "shaft": 9093,
    "sylvester": 20016,
    "upbringing": 24615,
    "financial": 3361,
    "accommodation": 11366,
    "cole": 5624,
    "cadet": 12738,
    "bach": 10384,
    "conan": 16608,
    "##hya": 17915,
    "##\u028e": 29701,
    "pulsing": 23139,
    "seemingly": 9428,
    "##bles": 13510,
    "maintain": 5441,
    "barracks": 10492,
    "camouflage": 21356,
    "braden": 27232,
    "collaborator": 18843,
    "martyrs": 18945,
    "deity": 12764,
    "hilda": 21589,
    "brendan": 15039,
    "[unused859]": 864,
    "[unused878]": 883,
    "include": 2421,
    "dementia": 28767,
    "butte": 25024,
    "143": 16065,
    "jolt": 22538,
    "membership": 5779,
    "vocabulary": 16188,
    "hoped": 5113,
    "echo": 9052,
    "fischer": 13042,
    "hyundai": 25983,
    "##wich": 12414,
    "[unused527]": 532,
    "caleb": 10185,
    "de": 2139,
    "fremont": 22550,
    "some": 2070,
    "logo": 8154,
    "172": 18253,
    "responding": 14120,
    "adjustments": 24081,
    "counterparts": 14562,
    "greyish": 26916,
    "habitats": 10746,
    "fingers": 3093,
    "ragged": 14202,
    "coined": 13279,
    "mohammed": 12619,
    "cavaliers": 25096,
    "cheek": 5048,
    "exchange": 3863,
    "popularized": 20339,
    "servicemen": 26714,
    "##\u00b7": 29661,
    "bulbs": 25548,
    "tully": 25724,
    "##lang": 25023,
    "scientist": 7155,
    "nielsen": 13188,
    "[unused548]": 553,
    "corresponds": 14788,
    "flinch": 23224,
    "##yat": 26139,
    "equity": 10067,
    "fools": 18656,
    "##\u0917": 29853,
    "array": 9140,
    "fig": 20965,
    "\u0569": 1224,
    "radcliffe": 22603,
    "pants": 6471,
    "lieu": 22470,
    "blush": 16688,
    "##ones": 21821,
    "falkland": 25257,
    "occult": 27906,
    "##\u03b7\u03c2": 29155,
    "trenches": 19874,
    "\u0263": 1117,
    "##ido": 13820,
    "aristocracy": 22706,
    "hastily": 15789,
    "brittany": 12686,
    "coughed": 19055,
    "hike": 21857,
    "int": 20014,
    "farming": 7876,
    "\u5f8c": 1846,
    "[unused637]": 642,
    "stretches": 14082,
    "##rgos": 22280,
    "source": 3120,
    "##izes": 10057,
    "base": 2918,
    "punta": 27377,
    "space": 2686,
    "lorenzo": 12484,
    "unlawful": 22300,
    "##ppel": 27877,
    "phi": 13569,
    "variables": 10857,
    "universidad": 16501,
    "karl": 6382,
    "donation": 13445,
    "##34": 22022,
    "canons": 21975,
    "##ru": 6820,
    "niccolo": 27033,
    "\u5b80": 1818,
    "pristine": 27375,
    "##sford": 17658,
    "ithaca": 27939,
    "humanoid": 28051,
    "properties": 5144,
    "##hold": 12640,
    "1867": 7517,
    "baker": 6243,
    "##\ufb02": 30511,
    "\u0584": 1239,
    "buddhism": 11388,
    "relationship": 3276,
    "##kson": 26579,
    "demographics": 28321,
    "horsepower": 15149,
    "bicycle": 10165,
    "dune": 21643,
    "add": 5587,
    "##]": 29636,
    "##\u00f8y": 27688,
    "pipes": 12432,
    "messengers": 28938,
    "##uge": 22890,
    "collaborations": 17437,
    "##dre": 16200,
    "involves": 7336,
    "torre": 22047,
    "sahib": 23513,
    "dwelling": 13160,
    "sonia": 16244,
    "undoubtedly": 17319,
    "\u1169": 1475,
    "vermont": 8839,
    "##ron": 4948,
    "culminated": 16943,
    "gabled": 26182,
    "twin": 5519,
    "panchayat": 20079,
    "intact": 10109,
    "[unused924]": 929,
    "earlier": 3041,
    "helium": 22764,
    "singer": 3220,
    "obligation": 14987,
    "director": 2472,
    "##cam": 28727,
    "##lish": 13602,
    "forgotten": 6404,
    "transmit": 19818,
    "arbor": 19679,
    "weston": 12755,
    "web": 4773,
    "unsuitable": 25622,
    "adopted": 4233,
    "convergence": 19143,
    "##lite": 22779,
    "\u30a2": 1693,
    "arcadia": 25178,
    "clauses": 24059,
    "gaston": 18572,
    "essendon": 25149,
    "colder": 21399,
    "mori": 22993,
    "##ua": 6692,
    "[unused202]": 207,
    "cutter": 16343,
    "francisco": 3799,
    "prostitute": 19215,
    "grenade": 17038,
    "zurich": 10204,
    "##ores": 16610,
    "##lellan": 25839,
    "docked": 25727,
    "430": 19540,
    "items": 5167,
    "emergency": 5057,
    "lifeless": 22185,
    "##oys": 27153,
    "##gawa": 21188,
    "##ril": 15928,
    "battles": 7465,
    "ieee": 15368,
    "sociological": 24846,
    "campus": 3721,
    "[unused542]": 547,
    "jong": 18528,
    "faults": 19399,
    "next": 2279,
    "reef": 12664,
    "geography": 10505,
    "nautical": 11339,
    "elites": 27021,
    "tonga": 20188,
    "privateer": 26790,
    "##itte": 27100,
    "colt": 9110,
    "outlets": 11730,
    "snarl": 24845,
    "physician": 7522,
    "##hoot": 23416,
    "safari": 23591,
    "wentworth": 20572,
    "million": 2454,
    "##fine": 23460,
    "kurdistan": 23627,
    "anatomical": 28141,
    "botanical": 13194,
    "##jana": 18803,
    "venetian": 15510,
    "accountable": 26771,
    "homeless": 11573,
    "[unused905]": 910,
    "recommend": 16755,
    "clarified": 20485,
    "chichester": 23406,
    "sioux": 16615,
    "##\u524d": 30302,
    "off": 2125,
    "##unk": 16814,
    "##\u702c": 30431,
    "sympathetic": 13026,
    "indonesian": 9003,
    "barack": 13857,
    "convention": 4680,
    "counterattack": 27835,
    "outlines": 22106,
    "finances": 16156,
    "ruined": 9868,
    "##cure": 23887,
    "writ": 25697,
    "shrewsbury": 18174,
    "vicinity": 9884,
    "##guide": 28582,
    "ict": 25891,
    "gasping": 17054,
    "oversee": 17467,
    "darling": 9548,
    "litter": 19070,
    "congregation": 7769,
    "developed": 2764,
    "likely": 3497,
    "allah": 16455,
    "tobin": 28096,
    "wednesday": 9317,
    "\u09b0": 1372,
    "enzyme": 9007,
    "##tman": 22942,
    "rand": 14566,
    "##mates": 15416,
    "\u1d63": 1508,
    "alignment": 12139,
    "mei": 19734,
    "alternate": 6585,
    "##ury": 13098,
    "frenzy": 21517,
    "ensures": 21312,
    "##nton": 15104,
    "reynolds": 9579,
    "donnie": 28486,
    "degree": 3014,
    "motioned": 13054,
    "\u0142odz": 17814,
    "conventional": 7511,
    "bsc": 23533,
    "nutrition": 14266,
    "intuitive": 29202,
    "bernhard": 21432,
    "singles": 3895,
    "\u2212": 1597,
    "submissions": 27842,
    "[unused821]": 826,
    "regards": 12362,
    "lo": 8840,
    "breuning": 18177,
    "reflections": 16055,
    "weighed": 12781,
    "mercer": 13081,
    "##\u02c8": 29715,
    "ks": 29535,
    "##centric": 22461,
    "##herton": 27949,
    "##dina": 18979,
    "coordinating": 19795,
    "tenure": 7470,
    "##\u0433": 29741,
    "general": 2236,
    "margins": 17034,
    "[unused947]": 952,
    "polynomial": 17505,
    "walkover": 17495,
    "[unused623]": 628,
    "##\u3063": 30189,
    "masonic": 21152,
    "jones": 3557,
    "enable": 9585,
    "entities": 11422,
    "\u0433": 1183,
    "penetrated": 21653,
    "segregated": 24382,
    "[unused964]": 969,
    "intellectuals": 17412,
    "appalachian": 19682,
    "1938": 4260,
    "skills": 4813,
    "##\u2080": 17110,
    "urgent": 13661,
    "abdomen": 13878,
    "goin": 17249,
    "attempting": 7161,
    "kevin": 4901,
    "shale": 18488,
    "insurrection": 27860,
    "climbs": 18881,
    "\u5ca1": 1832,
    "engraved": 16328,
    "jolly": 22193,
    "server": 8241,
    "ivanov": 26333,
    "conviction": 10652,
    "spray": 12509,
    "gerard": 11063,
    "naturalist": 19176,
    "\u2208": 1596,
    "\u30c4": 1712,
    "pittsburgh": 6278,
    "miracle": 9727,
    "##nger": 11392,
    "balancing": 20120,
    "##bi": 5638,
    "bets": 29475,
    "stabilized": 27697,
    "\u10dc": 1449,
    "prospects": 16746,
    "yeah": 3398,
    "flickering": 20046,
    "##screen": 18182,
    "670": 25535,
    "aunt": 5916,
    "cosmos": 21182,
    "##mme": 20058,
    "redding": 26687,
    "separation": 8745,
    "999": 25897,
    "regrets": 23161,
    "edit": 10086,
    "[unused958]": 963,
    "nostalgia": 26968,
    "buying": 9343,
    "median": 3991,
    "anarchist": 18448,
    "##\u2c7c": 30157,
    "illustrates": 24899,
    "seizing": 24681,
    "pubs": 23598,
    "wars": 5233,
    "weimar": 20695,
    "visually": 17453,
    "##\u0261": 29682,
    "astronomers": 26357,
    "##\u00bc": 29664,
    "[unused590]": 595,
    "bai": 21790,
    "fein": 27132,
    "##tze": 23102,
    "make": 2191,
    "albuquerque": 19334,
    "highways": 10292,
    "##\u0635": 29826,
    "[unused126]": 131,
    "analyses": 16478,
    "##lika": 25421,
    "##hue": 20169,
    "[unused482]": 487,
    "dozen": 6474,
    "##\uff08": 30513,
    "climatic": 27301,
    "seal": 7744,
    "symbol": 6454,
    "[unused216]": 221,
    "subsidiary": 7506,
    "##iques": 19516,
    "penned": 17430,
    "examiner": 19684,
    "relax": 9483,
    "yacht": 12187,
    "##\u0452": 29758,
    "port": 3417,
    "##nto": 13663,
    "##ult": 11314,
    "discovering": 13648,
    "tunis": 25317,
    "lisbon": 11929,
    "respect": 4847,
    "writing": 3015,
    "cupped": 13740,
    "yvonne": 21684,
    "corrections": 20983,
    "famine": 15625,
    "jar": 15723,
    "warming": 12959,
    "leaked": 15748,
    "##vres": 24790,
    "preferring": 21393,
    "scrape": 26988,
    "storing": 23977,
    "##39": 23499,
    "##ana": 5162,
    "bwv": 23860,
    "discovery": 5456,
    "formulation": 20219,
    "haley": 16624,
    "lot": 2843,
    "\u76ee": 1918,
    "compilations": 22754,
    "fiat": 18550,
    "1814": 10977,
    "committing": 16873,
    "7th": 5504,
    "similarly": 6660,
    "stony": 16104,
    "##\u20a4": 30100,
    "yao": 23711,
    "1200": 14840,
    "frankish": 26165,
    "##cini": 27085,
    "outburst": 27719,
    "\u3078": 1675,
    "##\u0bb3": 29929,
    "mcmillan": 27436,
    "##\u00dfe": 17499,
    "constituencies": 13315,
    "##hima": 16369,
    "##vel": 15985,
    "folder": 19622,
    "blackpool": 17444,
    "marketed": 11625,
    "auditory": 28042,
    "[unused118]": 123,
    "\u211d": 1579,
    "joanne": 23459,
    "biblical": 10213,
    "highlands": 11784,
    "balthazar": 25021,
    "##ulent": 27581,
    "cairo": 11096,
    "carrying": 4755,
    "compensation": 9430,
    "cubic": 11919,
    "441": 28015,
    "##ett": 6582,
    "spokane": 21878,
    "doctrines": 23252,
    "##cating": 18252,
    "##anga": 18222,
    "conglomerate": 22453,
    "complained": 10865,
    "graves": 9729,
    "45": 3429,
    "chorale": 26561,
    "triggers": 27099,
    "gastropod": 10953,
    "ohio": 4058,
    "entrepreneur": 10670,
    "dragons": 8626,
    "novelist": 9974,
    "##fs": 10343,
    "slight": 7263,
    "##ting": 3436,
    "\u221a": 1600,
    "totaling": 21798,
    ".": 1012,
    "territorial": 7894,
    "cousin": 5542,
    "##\u0cb0": 29937,
    "mayoral": 23578,
    "straps": 19702,
    "lakes": 6597,
    "covert": 19813,
    "##neuve": 28104,
    "schools": 2816,
    "master": 3040,
    "\u2022": 1528,
    "liv": 22135,
    "##ood": 17139,
    "##bolic": 18647,
    "\u3080": 1679,
    "dubbed": 9188,
    "##won": 19291,
    "##\u044e": 29757,
    "franklin": 5951,
    "francs": 24313,
    "interception": 17385,
    "warriors": 6424,
    "needed": 2734,
    "proposal": 6378,
    "##ee": 4402,
    "[unused655]": 660,
    "utility": 9710,
    "tam": 17214,
    "##onia": 12488,
    "shaw": 8233,
    "happiness": 8404,
    "landmark": 8637,
    "##lake": 14530,
    "luigi": 15153,
    "byrd": 17845,
    "areas": 2752,
    "ceremony": 5103,
    "\u09ae": 1370,
    "trembling": 10226,
    "godfrey": 18238,
    "client": 7396,
    "carey": 11782,
    "##elial": 24587,
    "boots": 6879,
    "parked": 9083,
    "[unused713]": 718,
    "lincolnshire": 16628,
    "token": 19204,
    "gasps": 23813,
    "aggression": 14974,
    "##take": 15166,
    "jon": 6285,
    "silenced": 25030,
    "luna": 12909,
    "demolished": 7002,
    "stranded": 15577,
    "##hism": 23108,
    "vibrations": 22755,
    "[unused58]": 59,
    "irs": 25760,
    "swinging": 11820,
    "ren": 14916,
    "forums": 21415,
    "traumatic": 19686,
    "bacon": 11611,
    "coaster": 16817,
    "canoe": 14347,
    "explosion": 7738,
    "noir": 15587,
    "##vir": 21663,
    "bassist": 9858,
    "402": 28048,
    "settlements": 7617,
    "##dates": 27122,
    "subfamily": 10946,
    "\u30d5": 1720,
    "\u0582": 1238,
    "##uating": 24133,
    "yoon": 24863,
    "##\u03c8": 29738,
    "mcqueen": 29265,
    "organisations": 8593,
    "virgin": 6261,
    "tunes": 13281,
    "yield": 10750,
    "\u6a39": 1884,
    "abolition": 15766,
    "##lau": 17298,
    "civic": 8388,
    "orr": 26914,
    "bryson": 26845,
    "enrolled": 8302,
    "reactors": 22223,
    "verb": 12034,
    "cougars": 26317,
    "antigen": 28873,
    "over": 2058,
    "##gam": 22864,
    "suspected": 6878,
    "\u65b0": 1862,
    "##ina": 3981,
    "frozen": 7708,
    "ape": 23957,
    "confronted": 12892,
    "identical": 7235,
    "beach": 3509,
    "condoms": 29094,
    "huntsville": 28492,
    "brewing": 16005,
    "eastman": 24252,
    "facades": 28708,
    "##rly": 21194,
    "configured": 26928,
    "rags": 26346,
    "elaine": 15263,
    "##ran": 5521,
    "##as": 3022,
    "medallion": 22541,
    "[unused936]": 941,
    "internationally": 7587,
    "centuries": 4693,
    "##tin": 7629,
    "diversity": 8906,
    "##ji": 4478,
    "toss": 10055,
    "glancing": 10167,
    "[unused528]": 533,
    "babu": 20948,
    "broadcasters": 18706,
    "crossroads": 16760,
    "marilyn": 14749,
    "compulsion": 27638,
    "peel": 14113,
    "baptism": 18336,
    "[unused628]": 633,
    "steven": 7112,
    "seduction": 26962,
    "basin": 6403,
    "1640": 21533,
    "jian": 29214,
    "##ures": 14900,
    "arises": 18653,
    "ahmed": 10208,
    "liberty": 7044,
    "george": 2577,
    "paralysis": 26287,
    "smoky": 20629,
    "impressive": 8052,
    "antrim": 24142,
    "##shi": 6182,
    "hawkins": 13835,
    "##\u301c": 30171,
    "atlantis": 16637,
    "execute": 15389,
    "puppets": 26101,
    "rumors": 11256,
    "punch": 8595,
    "warp": 24136,
    "achieved": 4719,
    "intervened": 21116,
    "island": 2479,
    "1788": 15622,
    "overlapping": 20567,
    "nikolay": 28494,
    "sabha": 11200,
    "##tama": 28282,
    "bulb": 20581,
    "literal": 18204,
    "ul": 17359,
    "captains": 15755,
    "harrington": 19760,
    "pattern": 5418,
    "vendor": 21431,
    "width": 9381,
    "[unused156]": 161,
    "schumacher": 22253,
    "##ku": 5283,
    "rebecca": 9423,
    "gun": 3282,
    "##amen": 27245,
    "##yad": 25152,
    "fulfilling": 21570,
    "mouthful": 28462,
    "valiant": 24329,
    "softened": 16573,
    "advertisements": 14389,
    "boroughs": 21413,
    "amounts": 8310,
    "1973": 3381,
    "solemnly": 26294,
    "diver": 17856,
    "##mb": 14905,
    "mused": 22335,
    "##rella": 21835,
    "279": 25745,
    "uncomfortable": 8796,
    "saetan": 23515,
    "usual": 5156,
    "fate": 6580,
    "sighed": 5489,
    "treatise": 15326,
    "##nikov": 22576,
    "[unused540]": 545,
    "dauphin": 29102,
    "##sel": 11246,
    "swear": 8415,
    "distracted": 11116,
    "[unused132]": 137,
    "airport": 3199,
    "grammar": 8035,
    "discipline": 9009,
    "buzz": 12610,
    "##ctic": 13306,
    "246": 22376,
    "solvent": 23735,
    "galactic": 21375,
    "leonid": 27316,
    "##tling": 15073,
    "alta": 23647,
    "mice": 12328,
    "ni": 9152,
    "guerre": 24613,
    "tub": 14366,
    "##dun": 27584,
    "diana": 8805,
    "heel": 12073,
    "link": 4957,
    "count": 4175,
    "decay": 13121,
    "\u4f50": 1764,
    "##agger": 27609,
    "##tum": 11667,
    "computational": 15078,
    "innocence": 12660,
    "funds": 5029,
    "##storm": 19718,
    "111": 11118,
    "controlling": 9756,
    "groin": 20092,
    "titanic": 20753,
    "covering": 5266,
    "scans": 27404,
    "lacy": 19959,
    "##quent": 15417,
    "susquehanna": 26361,
    "tehran": 13503,
    "fours": 23817,
    "index": 5950,
    "manly": 19385,
    "desperate": 7143,
    "legal": 3423,
    "upward": 10745,
    "[unused274]": 279,
    "terrific": 27547,
    "rediscovered": 26733,
    "uphold": 27329,
    "##bar": 8237,
    "centre": 2803,
    "##dry": 21190,
    "he": 2002,
    "marge": 25532,
    "prisoner": 7267,
    "##ilation": 29545,
    "conference": 3034,
    "##\u0569": 29771,
    "sipped": 17735,
    "[unused321]": 326,
    "\u0634": 1283,
    "emeritus": 12372,
    "myra": 23020,
    "loyalist": 23414,
    "##\u0e2d": 29957,
    "boulevard": 8459,
    "##osis": 12650,
    "comedies": 22092,
    "flames": 7311,
    "[unused644]": 649,
    "##naire": 20589,
    "rail": 4334,
    "cadence": 23620,
    "internationale": 21339,
    "remaining": 3588,
    "engineer": 3992,
    "parents": 3008,
    "spoon": 15642,
    "laguna": 18169,
    "##orro": 29459,
    "counter": 4675,
    "fabulous": 18783,
    "wrinkled": 15968,
    "backbone": 21505,
    "invest": 15697,
    "##crats": 23423,
    "oboe": 22523,
    "burke": 9894,
    "judo": 19083,
    "dances": 11278,
    "memory": 3638,
    "missing": 4394,
    "substantive": 27737,
    "##alic": 27072,
    "\u30e0": 1725,
    "\u6238": 1857,
    "250": 5539,
    "exchanged": 10573,
    "berlin": 4068,
    "##26": 23833,
    "unmistakable": 24219,
    "sanchez": 10568,
    "confess": 18766,
    "##nis": 8977,
    "ecclesiastical": 12301,
    "##rued": 28551,
    "snack": 19782,
    "size": 2946,
    "##hic": 16066,
    "examine": 11628,
    "bertha": 25079,
    "reasoned": 24557,
    "hoarse": 21221,
    "vertices": 18984,
    "199": 20713,
    "quantum": 8559,
    "stabbed": 13263,
    "##quest": 15500,
    "activity": 4023,
    "beard": 10154,
    "violently": 14196,
    "pianos": 27864,
    "advertised": 17099,
    "pitched": 8219,
    "suspiciously": 21501,
    "willow": 11940,
    "joyce": 11830,
    "adjunct": 20621,
    "comfortably": 18579,
    "dump": 15653,
    "fisherman": 19949,
    "\u0629": 1272,
    "painter": 5276,
    "##gration": 29397,
    "nationalists": 17934,
    "patted": 11930,
    "me": 2033,
    "burger": 15890,
    "guitarists": 28523,
    "moor": 16808,
    "[unused336]": 341,
    "##\u5fc4": 30376,
    "expansion": 4935,
    "##iidae": 15648,
    "##ml": 19968,
    "hm": 20287,
    "systematically": 23087,
    "ke": 17710,
    "calais": 23116,
    "lightweight": 12038,
    "shake": 6073,
    "claims": 4447,
    "wandering": 13071,
    "##rio": 9488,
    "winger": 16072,
    "meadows": 13524,
    "sloane": 17558,
    "osborn": 26999,
    "##stead": 25647,
    "##park": 14432,
    "amman": 25703,
    "macdonald": 10406,
    "##eld": 14273,
    "dug": 8655,
    "looming": 23430,
    "craters": 27561,
    "##nir": 29339,
    "##\u10e3": 29990,
    "outset": 26674,
    "losses": 6409,
    "satisfied": 8510,
    "ping": 17852,
    "domination": 17882,
    "rewards": 19054,
    "compilation": 6268,
    "sabah": 22515,
    "[unused716]": 721,
    "##wick": 7184,
    "weaknesses": 21775,
    "##phate": 24556,
    "911": 19989,
    "[unused928]": 933,
    "ferrari": 13632,
    "factories": 11123,
    "1878": 7261,
    "job": 3105,
    "nana": 17810,
    "relates": 14623,
    "bullying": 18917,
    "teddy": 11389,
    "stored": 8250,
    "\u99ac": 1980,
    "gael": 28151,
    "klan": 26613,
    "constituent": 13794,
    "##\u09a8": 29902,
    "vague": 13727,
    "films": 3152,
    "reproductive": 15124,
    "wesleyan": 19858,
    "\u0e32": 1422,
    "burroughs": 25991,
    "farmland": 16439,
    "piracy": 24386,
    "live": 2444,
    "##atus": 15590,
    "bumper": 21519,
    "slept": 7771,
    "grips": 24758,
    "arrogant": 15818,
    "##sti": 16643,
    "44th": 26409,
    "##\u6709": 30399,
    "im": 10047,
    "landfill": 28382,
    "everybody": 7955,
    "nedra": 28240,
    "replication": 21647,
    "[unused831]": 836,
    "gains": 12154,
    "##ral": 7941,
    "vomiting": 24780,
    "##eva": 13331,
    "4": 1018,
    "maximal": 29160,
    "[unused160]": 165,
    "caressing": 25296,
    "ghent": 24202,
    "uta": 28981,
    "##\u306c": 30195,
    "pow": 23776,
    "wives": 10403,
    "beasts": 15109,
    "separated": 5459,
    "[unused8]": 9,
    "acquiring": 13868,
    "little": 2210,
    "[unused948]": 953,
    "##\u05d3": 29791,
    "refit": 27070,
    "##lind": 27164,
    "[unused847]": 852,
    "surfaced": 15791,
    "rs": 12667,
    "[unused653]": 658,
    "dung": 29328,
    "##press": 20110,
    "##ours": 22957,
    "[unused233]": 238,
    "fellowship": 7881,
    "muir": 23110,
    "confident": 9657,
    "##feld": 8151,
    "pursuing": 11828,
    "tubes": 10868,
    "debut": 2834,
    "euroleague": 26093,
    "darren": 12270,
    "##tructing": 26310,
    "##eman": 16704,
    "montenegro": 13018,
    "chapters": 9159,
    "rebranded": 18233,
    "sim": 21934,
    "\u79be": 1927,
    "##ivo": 20984,
    "hinduism": 19632,
    "kerr": 14884,
    "##gm": 21693,
    "chennai": 12249,
    "##lift": 18412,
    "likeness": 28275,
    "\u00a6": 1072,
    "objectives": 11100,
    "penang": 21812,
    "wcw": 24215,
    "bavaria": 11606,
    "rigorous": 20001,
    "[unused35]": 36,
    "recreational": 10517,
    "intake": 13822,
    "cheltenham": 18763,
    "marino": 17185,
    "fascination": 18987,
    "kings": 5465,
    "slot": 10453,
    "##\u9752": 30501,
    "card": 4003,
    "bazaar": 22774,
    "wholesale": 17264,
    "billy": 5006,
    "fifth": 3587,
    "sporadic": 24590,
    "##tha": 8322,
    "mantra": 25951,
    "participant": 13180,
    "spain": 3577,
    "kingston": 9803,
    "##\u10e1": 29988,
    "scenic": 12916,
    "rotary": 16933,
    "##ctum": 27272,
    "stories": 3441,
    "denomination": 18683,
    "iphone": 18059,
    "consolidate": 24939,
    "stillness": 29435,
    "strain": 10178,
    "wadi": 28380,
    "baha": 13253,
    "camden": 13267,
    "enzymes": 16285,
    "sounds": 4165,
    "furnishings": 23127,
    "subsidiaries": 20178,
    "victoria": 3848,
    "qualities": 11647,
    "[unused95]": 96,
    "archaeology": 12009,
    "adamant": 29502,
    "##tok": 18715,
    "sep": 19802,
    "drinks": 8974,
    "##\u672c": 30402,
    "ca": 6187,
    "francesca": 15409,
    "##ville": 3077,
    "##vating": 26477,
    "##\u2153": 30109,
    "potomac": 18854,
    "feeder": 21429,
    "autonomous": 8392,
    "night": 2305,
    "performers": 9567,
    "ghana": 9701,
    "poor": 3532,
    "hydroelectric": 18541,
    "##tions": 9285,
    "93": 6109,
    "alteration": 26014,
    "avoid": 4468,
    "sarcastic": 22473,
    "nickel": 15519,
    "##von": 17789,
    "pretoria": 25366,
    "##uising": 28580,
    "kid": 4845,
    "ryder": 11731,
    "benefit": 5770,
    "customer": 8013,
    "government": 2231,
    "moving": 3048,
    "demand": 5157,
    "soluble": 24345,
    "policing": 21107,
    "artificial": 7976,
    "wires": 14666,
    "rural": 3541,
    "experiences": 6322,
    "affiliate": 8727,
    "percentage": 7017,
    "gasped": 8535,
    "oils": 20631,
    "\u3048": 1649,
    "ribs": 10335,
    "malone": 16321,
    "paper": 3259,
    "elevator": 7764,
    "friend": 2767,
    "lisa": 7059,
    "##lash": 27067,
    "planned": 3740,
    "agents": 6074,
    "cats": 8870,
    "scholars": 5784,
    "renaissance": 8028,
    "turbine": 14027,
    "##rra": 11335,
    "bluegrass": 21286,
    "##nting": 24360,
    "1782": 16890,
    "ambiguous": 20080,
    "##key": 14839,
    "northampton": 15944,
    "taft": 19911,
    "eddie": 5752,
    "##\u53f8": 30317,
    "physical": 3558,
    "standardization": 28648,
    "stubble": 26816,
    "books": 2808,
    "aesthetics": 20749,
    "junctions": 27169,
    "##heimer": 18826,
    "##\u056b": 29772,
    "mp": 6131,
    "guiding": 14669,
    "usa": 3915,
    "##grants": 27444,
    "##nch": 12680,
    "##tore": 19277,
    "##itarian": 25691,
    "berries": 22681,
    "disadvantage": 20502,
    "##osa": 8820,
    "predictions": 20932,
    "hats": 16717,
    "convert": 10463,
    "toll": 9565,
    "massachusetts": 4404,
    "prestige": 14653,
    "##ged": 5999,
    "[unused305]": 310,
    "centers": 6401,
    "galician": 28830,
    "lehman": 28444,
    "litigation": 15382,
    "vertically": 20018,
    "pirate": 11304,
    "abu": 8273,
    "gov": 18079,
    "actively": 8851,
    "leadership": 4105,
    "osborne": 16732,
    "\u116e": 1478,
    "##ctors": 24817,
    "andrea": 8657,
    "heirs": 15891,
    "cocky": 24995,
    "inspired": 4427,
    "michaels": 17784,
    "mina": 19808,
    "minor": 3576,
    "person": 2711,
    "stephanie": 11496,
    "watford": 21740,
    "moreno": 17921,
    "dozens": 9877,
    "##cute": 26869,
    "profiles": 17879,
    "##lard": 20822,
    "yards": 4210,
    "sobs": 21503,
    "[unused732]": 737,
    "butler": 7055,
    "defending": 6984,
    "deficit": 15074,
    "recruits": 15024,
    "##lom": 21297,
    "rwanda": 17591,
    "corporations": 11578,
    "fungi": 15289,
    "##\u0282": 29695,
    "236": 23593,
    "coven": 25248,
    "atari": 18978,
    "remington": 25282,
    "selected": 3479,
    "kidney": 14234,
    "[unused673]": 678,
    "[unused709]": 714,
    "dismounted": 29580,
    "howie": 28211,
    "sick": 5305,
    "\u20b1": 1575,
    "pump": 10216,
    "caine": 19881,
    "[unused117]": 122,
    "armada": 25306,
    "heller": 25038,
    "footing": 22849,
    "spade": 23288,
    "stove": 16247,
    "pal": 14412,
    "truth": 3606,
    "versatile": 22979,
    "venice": 7914,
    "tatar": 29241,
    "##movable": 25661,
    "bio": 16012,
    "campo": 22339,
    "minas": 21750,
    "saxons": 28267,
    "nadia": 14942,
    "welch": 17939,
    "tracts": 22069,
    "wright": 6119,
    "hardened": 15015,
    "paternal": 15112,
    "romans": 10900,
    "##ncies": 14767,
    "erected": 7019,
    "expressive": 22570,
    "ballistic": 19630,
    "wally": 18202,
    "oct": 13323,
    "##mined": 25089,
    "##cens": 19023,
    "cited": 6563,
    "clutch": 15357,
    "kaye": 23686,
    "statements": 8635,
    "casualty": 19844,
    "\u5e78": 1841,
    "collaboration": 5792,
    "[unused836]": 841,
    "undeveloped": 29341,
    "restricted": 7775,
    "drag": 8011,
    "judd": 20128,
    "hobby": 17792,
    "liza": 20503,
    "[unused633]": 638,
    "melanie": 13286,
    "pardon": 14933,
    "##pie": 14756,
    "assigned": 4137,
    "conservatives": 11992,
    "gillespie": 21067,
    "\u3055": 1656,
    "confined": 12302,
    "routed": 19578,
    "[unused560]": 565,
    "##thes": 24138,
    "singled": 25369,
    "##sions": 27466,
    "gigantic": 20193,
    "padma": 23731,
    "elder": 6422,
    "lotus": 13030,
    "charles": 2798,
    "\u02b2": 1141,
    "ljubljana": 21588,
    "\u9580": 1968,
    "organizer": 19012,
    "shop": 4497,
    "carole": 24348,
    "gladys": 22386,
    "hapoel": 24208,
    "reptiles": 20978,
    "incomplete": 12958,
    "lydia": 14076,
    "##eau": 10207,
    "71": 6390,
    "snatch": 23365,
    "record": 2501,
    "\u00a9": 1075,
    "##\u10d8": 29981,
    "holdings": 9583,
    "sixteenth": 14683,
    "modernized": 27140,
    "##hesion": 21471,
    "shenzhen": 26555,
    "blamed": 11248,
    "##tzer": 29546,
    "exploited": 18516,
    "first": 2034,
    "pillows": 17860,
    "snuck": 24492,
    "attendees": 19973,
    "\u06c1": 1308,
    "##mia": 10092,
    "dams": 17278,
    "speakers": 7492,
    "quinn": 8804,
    "tour": 2778,
    "happier": 19366,
    "these": 2122,
    "1629": 27882,
    "disaster": 7071,
    "atom": 13787,
    "selma": 28112,
    "telecommunication": 25958,
    "argument": 6685,
    "pills": 15345,
    "sound": 2614,
    "faye": 19243,
    "warmer": 16676,
    "marxism": 27255,
    "[unused51]": 52,
    "means": 2965,
    "obsession": 17418,
    "##dai": 21351,
    "[unused819]": 824,
    "elizabeth": 3870,
    "##arns": 23549,
    "\u767d": 1915,
    "cochin": 28982,
    "anticipation": 11162,
    "moaned": 12557,
    "oz": 11472,
    "suggesting": 9104,
    "##ece": 26005,
    "participating": 8019,
    "wonderland": 20365,
    "##\u592a": 30338,
    "electrical": 5992,
    "##\u592b": 30339,
    "gain": 5114,
    "satisfy": 13225,
    "##stra": 20528,
    "laureate": 17656,
    "##ba": 3676,
    "temperament": 26270,
    "casa": 14124,
    "invaded": 10836,
    "##arians": 28369,
    "rios": 25836,
    "##oll": 14511,
    "##\u6ca2": 30424,
    "tiberius": 28411,
    "linden": 22066,
    "chi": 9610,
    "##ths": 26830,
    "wicked": 10433,
    "\u05df": 1256,
    "[unused268]": 273,
    "manpower": 22039,
    "##\u2078": 30077,
    "muzzle": 17750,
    "tag": 6415,
    "dem": 17183,
    "pain": 3255,
    "[unused254]": 259,
    "flattened": 16379,
    "retail": 7027,
    "##ished": 13295,
    "lebanese": 12592,
    "##pa": 4502,
    "##\u05d2": 29790,
    "\u0562": 1220,
    "projections": 21796,
    "##ador": 26467,
    "[unused454]": 459,
    "handler": 28213,
    "surprised": 4527,
    "times": 2335,
    "gonzalez": 10121,
    "version": 2544,
    "natalia": 21521,
    "\u0928": 1327,
    "shreveport": 23740,
    "rides": 12271,
    "lehigh": 23241,
    "stratford": 17723,
    "thorough": 16030,
    "\u2014": 1517,
    "288": 24841,
    "quickly": 2855,
    "peeked": 18652,
    "ito": 23333,
    "dogg": 28844,
    "##down": 7698,
    "ashe": 13402,
    "destiny": 10461,
    "##bic": 13592,
    "employ": 12666,
    "##torium": 24390,
    "stewart": 5954,
    "##dt": 11927,
    "implication": 25323,
    "limit": 5787,
    "plunged": 16687,
    "grandpa": 15310,
    "[unused84]": 85,
    "religious": 3412,
    "rhetoric": 17871,
    "trouble": 4390,
    "marco": 8879,
    "gave": 2435,
    "solomon": 9168,
    "superseded": 19886,
    "programming": 4730,
    "newfoundland": 11944,
    "rashid": 22080,
    "longtime": 11155,
    "##\u10d3": 29977,
    "##nets": 22781,
    "decided": 2787,
    "guests": 6368,
    "reasoning": 13384,
    "britain": 3725,
    "concerned": 4986,
    "curls": 14484,
    "scotland": 3885,
    "dennis": 6877,
    "southeast": 4643,
    "superintendent": 9133,
    "\u05d0": 1241,
    "nerve": 9113,
    "##ox": 11636,
    "coastal": 5780,
    "heels": 8265,
    "sage": 10878,
    "celtics": 23279,
    "follower": 22399,
    "\u6211": 1855,
    "isolated": 7275,
    "paranormal": 20725,
    "gallo": 25624,
    "therapeutic": 17261,
    "hammered": 25756,
    "disgrace": 29591,
    "##upt": 29441,
    "hope": 3246,
    "originating": 14802,
    "sparkling": 16619,
    "subcommittee": 18052,
    "##64": 21084,
    "uniting": 26112,
    "updates": 14409,
    "viktor": 13489,
    "wasp": 19411,
    "hungarian": 5588,
    "steering": 9602,
    "erika": 24900,
    "1770": 17711,
    "##42": 20958,
    "sending": 6016,
    "sweetie": 22872,
    "t": 1056,
    "pending": 14223,
    "##\u6b62": 30413,
    "straightened": 11168,
    "reasonably": 16286,
    "[unused941]": 946,
    "rai": 15547,
    "americana": 25988,
    "##inium": 27585,
    "##ffs": 21807,
    "##\u30b3": 30230,
    "[unused973]": 978,
    "wrapped": 5058,
    "doses": 21656,
    "approval": 6226,
    "\u1175": 1483,
    "hesitated": 9369,
    "preston": 8475,
    "[unused307]": 312,
    "rayon": 26810,
    "uae": 17641,
    "##rvis": 29074,
    "stanford": 8422,
    "stocked": 24802,
    "##hit": 16584,
    "wilder": 18463,
    "thong": 27468,
    "barrels": 13826,
    "patent": 7353,
    "unit": 3131,
    "trait": 18275,
    "##leton": 19263,
    "##wyn": 11761,
    "512": 24406,
    "[unused849]": 854,
    "progressive": 6555,
    "##rain": 21166,
    "rightful": 27167,
    "##market": 20285,
    "\u3084": 1682,
    "tunnel": 5234,
    "##endez": 28787,
    "##war": 9028,
    "detailed": 6851,
    "buried": 3950,
    "knob": 16859,
    "nr": 17212,
    "simulation": 12504,
    "\u2080": 1547,
    "\u771f": 1921,
    "tchaikovsky": 25900,
    "##dog": 16168,
    "budgets": 26178,
    "furthermore": 7297,
    "\u5dde": 1836,
    "colby": 18650,
    "##\u5c1a": 30356,
    "madden": 24890,
    "widow": 7794,
    "1891": 6607,
    "##gnon": 26977,
    "moment": 2617,
    "solutions": 7300,
    "paws": 24392,
    "1707": 25029,
    "creek": 3636,
    "kidd": 25358,
    "prep": 17463,
    "cynthia": 15809,
    "translate": 17637,
    "tops": 13284,
    "suspicions": 17817,
    "\u0294": 1139,
    "explores": 15102,
    "diner": 15736,
    "##net": 7159,
    "##ising": 9355,
    "diameter": 6705,
    "election": 2602,
    "[unused881]": 886,
    "1836": 10081,
    "immigrated": 17352,
    "somewhat": 5399,
    "siberia": 16881,
    "laval": 26205,
    "kept": 2921,
    "processed": 13995,
    "carries": 7883,
    "chemicals": 12141,
    "lucha": 25390,
    "##olved": 16116,
    "mythological": 21637,
    "governor": 3099,
    "laughing": 5870,
    "##10": 10790,
    "##ias": 7951,
    "levant": 24485,
    "photographic": 12416,
    "rhode": 9763,
    "##iac": 20469,
    "##tang": 26067,
    "holly": 9079,
    "##wi": 9148,
    "propose": 16599,
    "nursery": 13640,
    "sincerity": 23997,
    "carlos": 5828,
    "ravaged": 25537,
    "outraged": 23558,
    "controller": 11486,
    "industry": 3068,
    "fowler": 14990,
    "uniformed": 25189,
    "\u03c3": 1173,
    "\u1d35": 1493,
    "mindanao": 23669,
    "inner": 5110,
    "eclectic": 20551,
    "abby": 9460,
    "##tv": 9189,
    "\u05dd": 1254,
    "284": 26871,
    "utilization": 27891,
    "cerebral": 18439,
    "tao": 20216,
    "310": 17196,
    "sailing": 8354,
    "prosperous": 18241,
    "mounting": 15986,
    "##hey": 14844,
    "eden": 10267,
    "##dal": 9305,
    "[unused763]": 768,
    "yankees": 11081,
    "receipts": 28258,
    "intend": 13566,
    "vic": 10967,
    "156": 16734,
    "packed": 8966,
    "##arts": 20591,
    "##rock": 16901,
    "##stad": 16917,
    "[unused641]": 646,
    "ponds": 16879,
    "\u4fdd": 1766,
    "potassium": 18044,
    "##kha": 15256,
    "1829": 11523,
    "[unused988]": 993,
    "##\u65b0": 30388,
    "prevalent": 15157,
    "stellar": 17227,
    "trivial": 20610,
    "##grin": 24860,
    "magdalene": 26890,
    "nantes": 25387,
    "translating": 22969,
    "drank": 10749,
    "gunter": 27834,
    "##boy": 11097,
    "##beam": 28302,
    "cute": 10140,
    "merrill": 16239,
    "organist": 16397,
    "neighbor": 11429,
    "donna": 10972,
    "##ns": 3619,
    "potsdam": 26554,
    "proposed": 3818,
    "stuck": 5881,
    "minus": 15718,
    "pleasantly": 27726,
    "910": 27743,
    "bose": 21299,
    "cairns": 21731,
    "acidic": 24171,
    "##wled": 28365,
    "cast": 3459,
    "chases": 29515,
    "##gne": 10177,
    "[unused926]": 931,
    "gaulle": 28724,
    "stubborn": 14205,
    "##ptic": 20746,
    "tuck": 18029,
    "constrained": 27570,
    "crept": 13147,
    "feat": 8658,
    "milford": 22622,
    "##cake": 17955,
    "paw": 22195,
    "student": 3076,
    "vivian": 13801,
    "##mel": 10199,
    "naming": 10324,
    "\u2282": 1610,
    "devastation": 25594,
    "administrative": 3831,
    "\u4e0d": 1744,
    "heiress": 20020,
    "##scopic": 24895,
    "##ngen": 25997,
    "kashmir": 13329,
    "offended": 15807,
    "lone": 10459,
    "##lves": 20899,
    "##mbo": 13344,
    "##\u00bb": 29663,
    "\u00b2": 1082,
    "dissipated": 22572,
    "pity": 12063,
    "##hman": 13890,
    "molten": 23548,
    "hesitantly": 24626,
    "000": 2199,
    "##iji": 27821,
    "relegated": 7049,
    "catastrophe": 25539,
    "[unused736]": 741,
    "brother": 2567,
    "##cturing": 19159,
    "reelection": 17648,
    "soup": 11350,
    "speech": 4613,
    "synthesis": 10752,
    "##\u306f": 30198,
    "funeral": 6715,
    "panama": 8515,
    "tying": 15233,
    "recruitment": 15680,
    "telecom": 18126,
    "edinburgh": 5928,
    "##riety": 27840,
    "photographs": 7008,
    "psychologists": 25428,
    "bout": 10094,
    "[unused493]": 498,
    "honesty": 16718,
    "react": 10509,
    "largely": 4321,
    "##\u02b8": 29710,
    "strap": 16195,
    "pronouns": 26028,
    "##uation": 14505,
    "emma": 5616,
    "girlfriends": 27408,
    "221": 19594,
    "22": 2570,
    "[unused690]": 695,
    "goofy": 27243,
    "counterpart": 13637,
    "scottish": 4104,
    "religion": 4676,
    "killer": 6359,
    "##ew": 7974,
    "buffet": 28305,
    "pleaded": 12254,
    "rook": 28620,
    "sykes": 23531,
    "\u6bd4": 1890,
    "dwarfs": 28984,
    "##\u795e": 30451,
    "mexican": 4916,
    "stats": 26319,
    "al": 2632,
    "subscription": 15002,
    "500": 3156,
    "shirt": 3797,
    "##bard": 21458,
    "least": 2560,
    "surgeon": 9431,
    "[unused990]": 995,
    "bounds": 19202,
    "brief": 4766,
    "candidacy": 17057,
    "shepard": 22189,
    "cretaceous": 18122,
    "\u2081": 1548,
    "##eka": 19025,
    "reilly": 13875,
    "##minating": 27932,
    "nietzsche": 28898,
    "charted": 12568,
    "agrees": 10217,
    "cozy": 26931,
    "\u7537": 1912,
    "##zes": 11254,
    "[unused308]": 313,
    "comes": 3310,
    "mountains": 4020,
    "northbound": 20055,
    "lexington": 14521,
    "thanks": 4283,
    "[unused439]": 444,
    "##ag": 8490,
    "##dos": 12269,
    "##oca": 24755,
    "critique": 16218,
    "raven": 10000,
    "logs": 15664,
    "organizers": 18829,
    "65": 3515,
    "##onga": 26356,
    "affluent": 22666,
    "butterfly": 9112,
    "dna": 6064,
    "lime": 14123,
    "cooperation": 6792,
    "selecting": 17739,
    "##shed": 14740,
    "tubular": 25147,
    "photographed": 16164,
    "contentious": 29308,
    "eric": 4388,
    "##dou": 26797,
    "providing": 4346,
    "##minated": 26972,
    "leaped": 16900,
    "psalm": 22728,
    "supremacy": 22006,
    "werewolves": 18306,
    "##yah": 17560,
    "lenses": 15072,
    "horizons": 24484,
    "cb": 17324,
    "favourable": 18731,
    "lingered": 17645,
    "terrified": 10215,
    "analogue": 21800,
    "mineral": 9754,
    "\u533a": 1782,
    "dates": 5246,
    "stationary": 17337,
    "##bian": 15599,
    "rocker": 24779,
    "slow": 4030,
    "1672": 27253,
    "geared": 23636,
    "overcome": 9462,
    "biennale": 21140,
    "\u06d2": 1310,
    "##\u30fc": 30265,
    "adults": 6001,
    "##ental": 21050,
    "habit": 10427,
    "##cede": 22119,
    "alcohol": 6544,
    "##runa": 26605,
    "##xes": 20156,
    "infringement": 20701,
    "landowners": 20152,
    "\u201a": 1522,
    "[unused286]": 291,
    "austin": 5899,
    "blanche": 18158,
    "saxon": 10038,
    "jared": 8334,
    "cue": 16091,
    "abused": 16999,
    "[unused575]": 580,
    "jill": 10454,
    "podcast": 16110,
    "motifs": 17366,
    "marin": 16400,
    "suggest": 6592,
    "##you": 29337,
    "betray": 20895,
    "##oku": 21940,
    "##sville": 9337,
    "barbarian": 25075,
    "\u5e7f": 1842,
    "boat": 4049,
    "bradshaw": 23762,
    "advantages": 12637,
    "286": 24921,
    "kimball": 26659,
    "##urbed": 29595,
    "##eral": 21673,
    "##mount": 20048,
    "##sd": 16150,
    "headquarters": 4075,
    "algae": 18670,
    "jammed": 21601,
    "\u0639": 1288,
    "contrasts": 23347,
    "##phila": 26083,
    "##\u0928": 29863,
    "ventral": 23420,
    "lively": 17133,
    "servers": 14903,
    "steamed": 21734,
    "chiefs": 9058,
    "ottawa": 8166,
    "nervously": 12531,
    "newscasts": 24482,
    "##\u1102": 29992,
    "yours": 6737,
    "justin": 6796,
    "antoinette": 28429,
    "##\u03b6": 29724,
    "##yl": 8516,
    "[unused323]": 328,
    "##ple": 10814,
    "1824": 11617,
    "dion": 19542,
    "athena": 21880,
    "prostate": 25086,
    "operators": 9224,
    "debate": 5981,
    "angels": 7048,
    "dew": 24903,
    "##hli": 27766,
    "nightingale": 21771,
    "corporation": 3840,
    "roxy": 23682,
    "transformed": 8590,
    "312": 21036,
    "font": 15489,
    "brunswick": 9192,
    "hq": 16260,
    "yeshiva": 22142,
    "verbs": 16025,
    "management": 2968,
    "immense": 14269,
    "purity": 18433,
    "expanding": 9186,
    "even": 2130,
    "\u30a4": 1695,
    "armor": 8177,
    "##ters": 7747,
    "[unused392]": 397,
    "banda": 24112,
    "function": 3853,
    "60th": 20928,
    "anthropologist": 21571,
    "subsp": 24807,
    "behave": 16582,
    "autism": 19465,
    "markets": 6089,
    "##uez": 29488,
    "##bular": 28808,
    "pumps": 15856,
    "truce": 18415,
    "willard": 19138,
    "isles": 14195,
    "jamal": 24132,
    "##coll": 26895,
    "perished": 23181,
    "##\u10d2": 29976,
    "[unused417]": 422,
    "polled": 26847,
    "pouch": 21445,
    "##oin": 28765,
    "bree": 21986,
    "brit": 28101,
    "easton": 21636,
    "fumble": 19576,
    "eyre": 26975,
    "dentist": 24385,
    "strips": 12970,
    "\u305f": 1661,
    "crap": 10231,
    "##\u308c": 30214,
    "spectators": 12405,
    "##erty": 15010,
    "daytona": 18226,
    "governments": 6867,
    "battista": 28422,
    "mesa": 15797,
    "mister": 12525,
    "##ution": 13700,
    "lesley": 23920,
    "clarity": 15563,
    "siena": 23754,
    "building": 2311,
    "shotgun": 13305,
    "anthologies": 25675,
    "andhra": 14065,
    "nueva": 24536,
    "freshly": 20229,
    "##bah": 24206,
    "safeguard": 28805,
    "recession": 19396,
    "coma": 16571,
    "##dm": 22117,
    "##hop": 18471,
    "inputs": 20407,
    "##shah": 25611,
    "audiences": 9501,
    "compatibility": 21778,
    "ras": 20710,
    "saliva": 26308,
    "straightening": 27508,
    "youtube": 7858,
    "hillside": 18573,
    "glances": 13021,
    "underwent": 9601,
    "##imus": 19315,
    "##ture": 11244,
    "##vara": 24516,
    "cookies": 16324,
    "countdown": 18144,
    "meanings": 15383,
    "springfield": 10493,
    "intellectual": 7789,
    "##\u3055": 30182,
    "southward": 22161,
    "1689": 22685,
    "bulging": 27569,
    "tyson": 19356,
    "comprised": 11539,
    "penelope": 18641,
    "decker": 20946,
    "repertory": 21099,
    "##ific": 18513,
    "conway": 14783,
    "##dd": 14141,
    "harmonies": 28594,
    "magnum": 19691,
    "##ification": 9031,
    "##hawk": 17998,
    "##taking": 17904,
    "north": 2167,
    "##\u0cbe": 29938,
    "##ogical": 20734,
    "dining": 7759,
    "propped": 16863,
    "\u5ba3": 1823,
    "payments": 10504,
    "[unused394]": 399,
    "occupants": 18837,
    "##\u751f": 30436,
    "allmusic": 10477,
    "declines": 26451,
    "festivals": 7519,
    "flap": 20916,
    "laying": 10201,
    "accustomed": 17730,
    "investigation": 4812,
    "sum": 7680,
    "eminent": 14953,
    "upstairs": 8721,
    "velvet": 10966,
    "ornamental": 18200,
    "vilnius": 20513,
    "##\u2021": 30062,
    "##umi": 12717,
    "pace": 6393,
    "[unused78]": 79,
    "1834": 10700,
    "[unused648]": 653,
    "27": 2676,
    "erskine": 27139,
    "polling": 17888,
    "ponder": 29211,
    "project": 2622,
    "nicaragua": 15448,
    "##leigh": 13615,
    "styling": 20724,
    "##\u30e0": 30251,
    "heaviest": 26858,
    "touring": 6828,
    "##iful": 18424,
    "intensely": 20531,
    "##tner": 18885,
    "businessman": 6883,
    "##\u0445": 29750,
    "naomi": 12806,
    "assumed": 5071,
    "sentiments": 23541,
    "\u11b7": 1487,
    "corner": 3420,
    "##dc": 16409,
    "shelley": 15828,
    "modernization": 20181,
    "abusive": 20676,
    "sally": 8836,
    "1735": 26063,
    "##hn": 7295,
    "galveston": 26630,
    "majors": 15279,
    "dusty": 12727,
    "beating": 6012,
    "slopes": 10314,
    "married": 2496,
    "[unused196]": 201,
    "trusting": 19836,
    ",": 1010,
    "sirius": 23466,
    "catalyst": 16771,
    "qualifying": 6042,
    "rick": 6174,
    "bundles": 26825,
    "encounter": 8087,
    "[unused304]": 309,
    "stanis\u0142aw": 26133,
    "desperately": 9652,
    "sharma": 14654,
    "highs": 26836,
    "##yana": 16811,
    "##tters": 24168,
    "jonas": 10680,
    "other": 2060,
    "renowned": 8228,
    "##bry": 25731,
    "bitch": 7743,
    "##tized": 23355,
    "[unused464]": 469,
    "##kes": 9681,
    "##\u057e": 29782,
    "contemplating": 25247,
    "heard": 2657,
    "ji": 10147,
    "licensing": 13202,
    "##hurst": 10510,
    "narrows": 25142,
    "##asse": 27241,
    "##sted": 14701,
    "genome": 13458,
    "alterations": 16705,
    "vineyards": 20597,
    "slaughter": 14574,
    "somethin": 27941,
    "ideally": 28946,
    "shuffled": 18764,
    "comet": 15699,
    "abigail": 15983,
    "lyrics": 4581,
    "prague": 8634,
    "den": 7939,
    "lauren": 10294,
    "strangled": 21384,
    "nails": 10063,
    "win": 2663,
    "delhi": 6768,
    "directions": 7826,
    "cory": 18342,
    "annapolis": 24889,
    "courage": 8424,
    "##titles": 27430,
    "needing": 11303,
    "avoids": 26777,
    "armour": 12371,
    "culinary": 20560,
    "dragged": 7944,
    "valued": 11126,
    "1993": 2857,
    "care": 2729,
    "[unused791]": 796,
    "##bet": 20915,
    "rector": 10935,
    "auguste": 20758,
    "bend": 8815,
    "various": 2536,
    "\u05e8": 1265,
    "await": 26751,
    "1783": 15331,
    "evacuated": 13377,
    "coarse": 20392,
    "##ection": 18491,
    "sane": 22856,
    "##lar": 8017,
    "confirm": 12210,
    "contenders": 27236,
    "knowledge": 3716,
    "vomit": 23251,
    "new": 2047,
    "tokyo": 5522,
    "muffled": 15783,
    "[unused73]": 74,
    "lingering": 15304,
    "hispanic": 6696,
    "carnegie": 11298,
    "##\u0432": 25529,
    "jeff": 5076,
    "successive": 11165,
    "##\u0f56": 29967,
    "dust": 6497,
    "ligament": 25641,
    "##\u1d47": 30033,
    "madrid": 6921,
    "venerable": 24541,
    "aquitaine": 24973,
    "dunedin": 22020,
    "cooler": 14976,
    "after": 2044,
    "1642": 24061,
    "complications": 12763,
    "memorials": 22899,
    "using": 2478,
    "wage": 11897,
    "##frid": 27439,
    "securities": 12012,
    "patents": 13979,
    "advancement": 12607,
    "visitation": 28877,
    "ask": 3198,
    "1818": 12094,
    "matt": 4717,
    "##logram": 24915,
    "elle": 15317,
    "proceeded": 8979,
    "##ra\u00dfe": 27807,
    "rhys": 13919,
    "##oting": 20656,
    "stockport": 26284,
    "202": 16798,
    "communication": 4807,
    "boasted": 23390,
    "##rus": 7946,
    "mating": 15100,
    "prominence": 12144,
    "mallory": 20468,
    "cbs": 6568,
    "whatever": 3649,
    "345": 23785,
    "route": 2799,
    "##ans": 6962,
    "##valent": 24879,
    "petrol": 17141,
    "##bba": 22414,
    "maxim": 20446,
    "brushing": 12766,
    "genocide": 14052,
    "swapped": 29176,
    "defence": 4721,
    "2015": 2325,
    "commissioning": 21612,
    "revolutionary": 6208,
    "##ant": 4630,
    "socket": 22278,
    "##cock": 13959,
    "##blood": 26682,
    "toad": 21344,
    "##\u0964": 29880,
    "##ann": 11639,
    "destroyed": 3908,
    "blurted": 18751,
    "congress": 3519,
    "lookout": 19052,
    "sandra": 12834,
    "vita": 19300,
    "multinational": 20584,
    "[unused473]": 478,
    "better": 2488,
    "1784": 16496,
    "[unused161]": 166,
    "behind": 2369,
    "clearly": 4415,
    "drake": 7867,
    "guadalajara": 22887,
    "lizard": 15450,
    "liquor": 13207,
    "tenderness": 24605,
    "whig": 21632,
    "celebrates": 21566,
    "landau": 28570,
    "notation": 14869,
    "violinist": 16609,
    "harassed": 28186,
    "pennant": 22690,
    "presiding": 18131,
    "##how": 14406,
    "copyright": 9385,
    "villa": 6992,
    "\u0996": 1354,
    "gregor": 16973,
    "between": 2090,
    "mundo": 25989,
    "mention": 5254,
    "greenberg": 24190,
    "##tine": 10196,
    "residences": 14094,
    "integers": 24028,
    "##otted": 26174,
    "biology": 7366,
    "emphasize": 17902,
    "##ously": 13453,
    "boarding": 9405,
    "raid": 8118,
    "guillaume": 20061,
    "plausible": 24286,
    "##2": 2475,
    "coal": 5317,
    "tsunami": 19267,
    "dutch": 3803,
    "channels": 6833,
    "bloody": 6703,
    "1726": 28342,
    "frames": 11048,
    "refused": 4188,
    "stone": 2962,
    "##\u30e3": 30254,
    "runways": 24578,
    "normandy": 13298,
    "##sr": 21338,
    "midtown": 27219,
    "will": 2097,
    "##atter": 20097,
    "phase": 4403,
    "residual": 21961,
    "asiatic": 23983,
    "band": 2316,
    "substitution": 20885,
    "transmission": 6726,
    "umar": 27981,
    "refining": 28596,
    "[unused584]": 589,
    "##l": 2140,
    "embodied": 25405,
    "greed": 22040,
    "two": 2048,
    "##ives": 24653,
    "gaul": 26522,
    "welcome": 6160,
    "##tase": 18260,
    "investigating": 11538,
    "connell": 17199,
    "##ifiers": 28295,
    "filly": 22062,
    "sevilla": 29363,
    "economical": 21791,
    "ousted": 28368,
    "contradictory": 27894,
    "153": 16710,
    "impatience": 28011,
    "publisher": 6674,
    "[unused642]": 647,
    "##dion": 29573,
    "350": 8698,
    "clicking": 22042,
    "mia": 8764,
    "tank": 4951,
    "peace": 3521,
    "ying": 20879,
    "##tua": 26302,
    "disposed": 21866,
    "365": 19342,
    "titles": 4486,
    "italia": 13052,
    "slovakia": 10991,
    "directs": 23303,
    "disapproval": 21406,
    "rogue": 12406,
    "replica": 15059,
    "##rization": 26910,
    "harvard": 5765,
    "occupations": 23374,
    "robotics": 21331,
    "##ayan": 25868,
    "undergraduate": 8324,
    "mecca": 21340,
    "##tula": 28970,
    "montgomery": 8482,
    "reviewing": 15252,
    "stimulation": 20858,
    "bombers": 10544,
    "courageous": 26103,
    "##world": 11108,
    "vocational": 13099,
    "fed": 7349,
    "##\u30df": 30250,
    "membrane": 10804,
    "[unused90]": 91,
    "sindh": 20284,
    "controlled": 4758,
    "##chia": 20881,
    "loving": 8295,
    "##uh": 27225,
    "validity": 16406,
    "\u5c71": 1831,
    "##ivar": 28739,
    "##mbled": 23931,
    "##ods": 20620,
    "maha": 24404,
    "hi": 7632,
    "##pet": 22327,
    "kuala": 15490,
    "lastly": 22267,
    "belly": 7579,
    "jobs": 5841,
    "##nder": 11563,
    "rhodesia": 20340,
    "enraged": 18835,
    "indication": 12407,
    "dive": 11529,
    "radically": 25796,
    "vidhan": 28590,
    "volcanoes": 23694,
    "##\u0629": 19433,
    "hayes": 10192,
    "grimsby": 24470,
    "cardiff": 10149,
    "##jee": 16963,
    "\u56d7": 1797,
    "!": 999,
    "condition": 4650,
    "honoring": 21494,
    "coasts": 20266,
    "profoundly": 28089,
    "soloists": 27516,
    "concentration": 6693,
    "fists": 10006,
    "bulgaria": 8063,
    "georgie": 20280,
    "journalism": 8083,
    "punk": 7196,
    "constraints": 14679,
    "pastry": 27060,
    "1659": 28288,
    "##kling": 20260,
    "[unused980]": 985,
    "explanations": 17959,
    "typically": 4050,
    "bow": 6812,
    "##thing": 20744,
    "commodore": 12957,
    "elders": 13376,
    "leach": 24520,
    "55": 4583,
    "max": 4098,
    "##acious": 20113,
    "mckinley": 22121,
    "denounced": 17787,
    "asher": 17243,
    "indonesia": 6239,
    "vaughn": 18220,
    "casually": 13217,
    "spun": 7455,
    "engineering": 3330,
    "foam": 17952,
    "humidity": 18213,
    "##dak": 23597,
    "defamation": 27652,
    "objection": 22224,
    "milwaukee": 9184,
    "luis": 6446,
    "precisely": 10785,
    "tongues": 19677,
    "dreadful": 21794,
    "##night": 15864,
    "bullock": 25200,
    "medical": 2966,
    "required": 3223,
    "runners": 7190,
    "\u0bb5": 1394,
    "inspire": 18708,
    "870": 28864,
    "lev": 23310,
    "##\u82f1": 30467,
    "##sch": 11624,
    "rosary": 28291,
    "boom": 8797,
    "rowe": 20538,
    "insisted": 7278,
    "grenada": 29153,
    "sleeve": 10353,
    "blasts": 25829,
    "hackett": 28630,
    "coulter": 28293,
    "overshadowed": 28604,
    "##erman": 18689,
    "holloway": 20977,
    "material": 3430,
    "##\u0563": 29768,
    "afraid": 4452,
    "##be": 4783,
    "fountain": 9545,
    "baskets": 25946,
    "\u116a": 1476,
    "magnitude": 10194,
    "##cton": 28312,
    "sri": 5185,
    "140": 8574,
    "wandered": 13289,
    "##bius": 17028,
    "cage": 7980,
    "guerrero": 16938,
    "inviting": 15085,
    "hoover": 17443,
    "bathurst": 21897,
    "fisheries": 13424,
    "bravery": 16534,
    "emerge": 12636,
    "arson": 24912,
    "journalist": 4988,
    "sponge": 25742,
    "##hing": 12053,
    "cab": 9298,
    "pupil": 11136,
    "parted": 10277,
    "savoy": 16394,
    "sweetness": 23210,
    "productive": 13318,
    "swollen": 13408,
    "##nate": 12556,
    "occurs": 5158,
    "245": 21005,
    "aleksandr": 24020,
    "detachments": 29568,
    "##\u6a4b": 30411,
    "##nick": 13542,
    "paz": 18183,
    "##\u3064": 30190,
    "winters": 12214,
    "change": 2689,
    "coyotes": 26880,
    "advisory": 7319,
    "reversal": 23163,
    "##venor": 26806,
    "buffy": 18467,
    "analog": 11698,
    "##plate": 15725,
    "\u90e8": 1960,
    "extremely": 5186,
    "fluid": 8331,
    "citadel": 15364,
    "prosperity": 14165,
    "descending": 15127,
    "##\u0932": 29870,
    "allocated": 11095,
    "centenary": 17705,
    "illegal": 6206,
    "blockbuster": 27858,
    "roach": 20997,
    "trees": 3628,
    "##eborg": 27614,
    "505": 28952,
    "[unused315]": 320,
    "diplomat": 11125,
    "##nte": 10111,
    "##ono": 17175,
    "overdose": 26641,
    "shuffle": 23046,
    "badger": 24186,
    "authored": 8786,
    "bristol": 7067,
    "nasal": 19077,
    "relationships": 6550,
    "widely": 4235,
    "\u2261": 1607,
    "baked": 17776,
    "##sphere": 23874,
    "intersects": 17349,
    "screamed": 7210,
    "[unused155]": 160,
    "##bbling": 15343,
    "howling": 22298,
    "backdrop": 18876,
    "##ulate": 9869,
    "malibu": 29047,
    "users": 5198,
    "##py": 7685,
    "interpretations": 15931,
    "[unused212]": 217,
    "[": 1031,
    "edition": 3179,
    "##icides": 22698,
    "##ds": 5104,
    "before": 2077,
    "timbers": 26238,
    "##lf": 10270,
    "continuous": 7142,
    "successively": 24288,
    "profitable": 15282,
    "seismic": 22630,
    "handicapped": 26920,
    "ferns": 25715,
    "playwright": 11170,
    "surrey": 9948,
    "##stems": 29189,
    "##\u0281": 29694,
    "walking": 3788,
    "delivering": 12771,
    "raju": 25098,
    "clarissa": 25260,
    "apartments": 9620,
    "huffed": 25014,
    "ruth": 7920,
    "##lder": 16502,
    "randolph": 13031,
    "syria": 7795,
    "tremendous": 14388,
    "grinned": 6973,
    "revoked": 22837,
    "thrusts": 25842,
    "##\u5802": 30331,
    "assertion": 23617,
    "detectors": 25971,
    "shelby": 15294,
    "wa": 11333,
    "alleviate": 24251,
    "assisting": 13951,
    "patronage": 15694,
    "atlanta": 5865,
    "##ead": 13775,
    "basement": 8102,
    "cover": 3104,
    "loading": 10578,
    "sacked": 14159,
    "##ln": 19666,
    "1768": 19793,
    "currents": 14731,
    "##sities": 24279,
    "lion": 7006,
    "mood": 6888,
    "telecast": 28803,
    "tract": 12859,
    "admit": 6449,
    "molecule": 13922,
    "[unused327]": 332,
    "drafted": 7462,
    "barley": 21569,
    "##iface": 29164,
    "suzy": 28722,
    "penetrating": 22391,
    "anchors": 24674,
    "plaques": 28487,
    "solitude": 22560,
    "earrings": 27212,
    "prentice": 23429,
    "appeal": 5574,
    "casinos": 27300,
    "64": 4185,
    "versus": 6431,
    "##\u062a": 29817,
    "ax": 22260,
    "condensed": 25011,
    "picnic": 12695,
    "schubert": 24645,
    "nfc": 22309,
    "conical": 24750,
    "manipulate": 17708,
    "##chman": 19944,
    "chased": 13303,
    "239": 23688,
    "potentially": 9280,
    "moonlight": 11986,
    "signal": 4742,
    "[unused49]": 50,
    "authoritative": 23949,
    "game": 2208,
    "soloist": 16504,
    "sense": 3168,
    "\u0e07": 1410,
    "mecklenburg": 22007,
    "##eng": 13159,
    "legislative": 4884,
    "vimes": 28482,
    "[unused773]": 778,
    "particular": 3327,
    "touchdowns": 10183,
    "techniques": 5461,
    "lawyers": 9559,
    "##ied": 6340,
    "funnel": 25102,
    "value": 3643,
    "lessons": 8220,
    "nipples": 28124,
    "nodded": 3368,
    "commandant": 15254,
    "##osition": 19234,
    "##70": 19841,
    "delay": 8536,
    "plays": 3248,
    "\u099a": 1356,
    "uncomfortably": 22502,
    "comparable": 12435,
    "advisers": 24205,
    "pc": 7473,
    "##san": 8791,
    "compared": 4102,
    "moffat": 28528,
    "termed": 12061,
    "frontier": 8880,
    "taps": 25316,
    "ads": 14997,
    "##\u0642": 29834,
    "meaningless": 25120,
    "orchards": 22976,
    "bats": 12236,
    "littered": 24777,
    "jasmine": 14032,
    "outfielder": 21033,
    "##lean": 20898,
    "##\u2ebc": 30159,
    "rise": 4125,
    "cadets": 15724,
    "1920s": 6641,
    "draped": 15098,
    "area": 2181,
    "detroit": 5626,
    "extras": 26279,
    "syndication": 26973,
    "##sper": 17668,
    "conceptual": 17158,
    "##rooms": 29020,
    "41st": 24233,
    "locally": 7246,
    "turkmenistan": 25432,
    "[unused731]": 736,
    "singapore": 5264,
    "therapy": 7242,
    "\u09aa": 1367,
    "steak": 21475,
    "##uman": 19042,
    "\u062e": 1277,
    "toxicity": 22423,
    "attack": 2886,
    "##bella": 21700,
    "##cc": 9468,
    "clapton": 24705,
    "##eurs": 26744,
    "kinda": 17704,
    "skipper": 23249,
    "##xed": 19068,
    "afi": 28697,
    "\u110b": 1463,
    "##cts": 16649,
    "tables": 7251,
    "v8": 15754,
    "compares": 22963,
    "##rke": 25074,
    "##yre": 16363,
    "terminal": 5536,
    "ang": 17076,
    "##fies": 14213,
    "sbs": 21342,
    "chance": 3382,
    "lineup": 10515,
    "ad": 4748,
    "1926": 4881,
    "condo": 25805,
    "saga": 12312,
    "kara": 13173,
    "pantheon": 24152,
    "exhaled": 16242,
    "analyzed": 16578,
    "mps": 12616,
    "frankly": 19597,
    "tourist": 7538,
    "##ped": 5669,
    "airplane": 13297,
    "collectors": 14256,
    "explored": 10641,
    "reminding": 15906,
    "unhappy": 12511,
    "145": 13741,
    "bedrooms": 18390,
    "days": 2420,
    "promo": 19430,
    "spence": 22186,
    "twists": 21438,
    "anticipating": 26481,
    "##nut": 24072,
    "nora": 12306,
    "sinking": 10186,
    "catch": 4608,
    "bore": 8501,
    "smallest": 10479,
    "surpassing": 27097,
    "miniatures": 28615,
    "##ero": 10624,
    "##liche": 27412,
    "infections": 15245,
    "drop": 4530,
    "##write": 26373,
    "toast": 15174,
    "\u09b7": 1375,
    "##so": 6499,
    "highlights": 11637,
    "paperback": 13611,
    "calcium": 13853,
    "whipping": 23016,
    "##ecure": 29150,
    "trials": 7012,
    "##ene": 8625,
    "skopje": 29255,
    "aim": 6614,
    "##year": 29100,
    "springsteen": 26002,
    "1625": 26263,
    "simpson": 9304,
    "afl": 10028,
    "tierney": 26198,
    "seamen": 28671,
    "##gis": 17701,
    "gunnery": 27919,
    "podium": 14502,
    "belongs": 7460,
    "buzzing": 20386,
    "developer": 9722,
    "georgetown": 12982,
    "healthcare": 9871,
    "makers": 11153,
    "prey": 8336,
    "italics": 19408,
    "motors": 9693,
    "clayton": 11811,
    "fame": 4476,
    "orphan": 18211,
    "secondary": 3905,
    "waitress": 13877,
    "affect": 7461,
    "shanghai": 8344,
    "##heart": 22375,
    "counsel": 9517,
    "goth": 25976,
    "lucy": 7004,
    "swore": 12860,
    "colours": 8604,
    "downed": 20164,
    "cullen": 19925,
    "lizzie": 15860,
    "louisville": 11577,
    "serbian": 6514,
    "shifter": 18189,
    "exports": 14338,
    "##\u548c": 30322,
    "##bbies": 27982,
    "##ane": 7231,
    "##case": 18382,
    "on": 2006,
    "fell": 3062,
    "dioceses": 26586,
    "hamlet": 8429,
    "appreciated": 12315,
    "##grounds": 28951,
    "##lley": 25105,
    "sir": 2909,
    "suffering": 6114,
    "napoli": 29485,
    "aspirations": 22877,
    "land": 2455,
    "ring": 3614,
    "parliament": 3323,
    "mendes": 27916,
    "classify": 26268,
    "[unused864]": 869,
    "axis": 8123,
    "levels": 3798,
    "populated": 10357,
    "nintendo": 10022,
    "reside": 13960,
    "##chment": 22729,
    "##cey": 25810,
    "hazy": 26710,
    "hellenistic": 27464,
    "parade": 7700,
    "##ssee": 29522,
    "##ythe": 26688,
    "israel": 3956,
    "popularity": 6217,
    "##ford": 3877,
    "##of": 11253,
    "popularly": 16071,
    "sedimentary": 25503,
    "remarks": 12629,
    "entertained": 21474,
    "germans": 7074,
    "republics": 24822,
    "someone": 2619,
    "1749": 24704,
    "initiatives": 11107,
    "tab": 21628,
    "glittering": 20332,
    "journal": 3485,
    "repulsed": 24571,
    "numbering": 15200,
    "eduard": 20424,
    "faculty": 4513,
    "unofficially": 29322,
    "barge": 19398,
    "davies": 9082,
    "mistakes": 12051,
    "sand": 5472,
    "prof": 11268,
    "cringed": 23952,
    "rex": 10151,
    "infrastructure": 6502,
    "transitional": 17459,
    "ancestry": 11377,
    "fairfield": 18986,
    "stairs": 5108,
    "##\u5929": 30337,
    "##\u09c7": 29917,
    "bce": 10705,
    "rose": 3123,
    "truncated": 25449,
    "promotional": 10319,
    "coaching": 7748,
    "almost": 2471,
    "habits": 14243,
    "representatives": 4505,
    "insisting": 22604,
    "claire": 6249,
    "chun": 20979,
    "turbo": 15386,
    "##zle": 29247,
    "marathon": 8589,
    "[unused264]": 269,
    "cop": 8872,
    "freak": 11576,
    "jacket": 6598,
    "fees": 9883,
    "view": 3193,
    "discontinued": 8944,
    "biscuits": 27529,
    "riga": 17557,
    "curling": 11599,
    "##ager": 17325,
    "ko": 12849,
    "##pipe": 24548,
    "bait": 17395,
    "bu": 20934,
    "editors": 10195,
    "eerie": 18823,
    "epstein": 26646,
    "knowles": 22815,
    "shortage": 15843,
    "southland": 29121,
    "whereabouts": 18913,
    "conor": 20545,
    "##pired": 21649,
    "gothenburg": 22836,
    "[unused186]": 191,
    "##\u3080": 30205,
    "ruling": 6996,
    "historically": 7145,
    "##aq": 20784,
    "10th": 6049,
    "1918": 4271,
    "miracles": 17861,
    "pilgrims": 17992,
    "projectile": 25921,
    "344": 29386,
    "integration": 8346,
    "fabian": 21174,
    "symphonic": 18957,
    "gregorian": 25847,
    "##\u0578": 29779,
    "[unused886]": 891,
    "570": 24902,
    "eliminate": 11027,
    "witnessed": 9741,
    "identities": 15702,
    "designer": 5859,
    "routledge": 21180,
    "shatter": 27271,
    "mart": 20481,
    "censorship": 15657,
    "grady": 19011,
    "##ote": 12184,
    "1753": 23810,
    "airports": 13586,
    "chemist": 15535,
    "dagger": 10794,
    "##\u30a3": 30220,
    "drum": 6943,
    "\u209a": 1569,
    "metacritic": 14476,
    "theorem": 9872,
    "towering": 20314,
    "##ega": 29107,
    "nagasaki": 27107,
    "demonstrates": 16691,
    "[unused109]": 114,
    "jailed": 21278,
    "##rey": 15202,
    "borneo": 15688,
    "[unused154]": 159,
    "uploaded": 21345,
    "birth": 4182,
    "certain": 3056,
    "towards": 2875,
    "770": 29065,
    "membranes": 24972,
    "[unused410]": 415,
    "manufacturer": 7751,
    "preseason": 20038,
    "choirs": 24743,
    "encoding": 17181,
    "flopped": 24723,
    "aziz": 21196,
    "cheers": 21250,
    "debts": 13930,
    "maine": 7081,
    "stylized": 19551,
    "affectionately": 28734,
    "amassed": 22151,
    "mikey": 25998,
    "##\u1161": 30006,
    "##cion": 10446,
    "##deck": 26547,
    "m\u00b3": 14241,
    "stool": 14708,
    "##go": 3995,
    "##mins": 21266,
    "employers": 12433,
    "maud": 21696,
    "requirement": 9095,
    "##ricted": 20623,
    "ghanaian": 27202,
    "derelict": 28839,
    "albeit": 12167,
    "london": 2414,
    "##lica": 19341,
    "annoyed": 11654,
    "trenton": 17148,
    "gateway": 11909,
    "planners": 27155,
    "unfinished": 14342,
    "##berger": 14859,
    "compelled": 15055,
    "per": 2566,
    "philips": 19087,
    "##\u2660": 30150,
    "perspectives": 15251,
    "terraces": 25633,
    "beckett": 20599,
    "weir": 16658,
    "yourself": 4426,
    "access": 3229,
    "shaking": 5513,
    "debates": 14379,
    "##tec": 26557,
    "##rity": 15780,
    "chasing": 11777,
    "[unused467]": 472,
    "hungary": 5872,
    "basis": 3978,
    "vicky": 22845,
    "speaking": 4092,
    "##cat": 11266,
    "lie": 4682,
    "shapiro": 24630,
    "expressway": 11720,
    "tammy": 19971,
    "chavez": 16860,
    "##ves": 6961,
    "seminars": 17239,
    "relied": 13538,
    "quietly": 5168,
    "detectives": 18145,
    "grace": 4519,
    "hodgson": 26107,
    "##eri": 11124,
    "##hana": 15788,
    "##wind": 11101,
    "##writer": 15994,
    "sin": 8254,
    "##ddin": 18277,
    "finishes": 12321,
    "41": 4601,
    "antiques": 27763,
    "diversified": 24908,
    "seed": 6534,
    "awakened": 20256,
    "mountainous": 14897,
    "maker": 9338,
    "summoned": 11908,
    "##utus": 23998,
    "colonization": 18962,
    "##flow": 12314,
    "unreasonable": 29205,
    "[unused33]": 34,
    "prodigy": 28334,
    "rapid": 5915,
    "##iv": 12848,
    "ipswich": 15435,
    "freeman": 11462,
    "bursts": 19239,
    "garage": 7381,
    "##llo": 7174,
    "##27": 22907,
    "tentative": 19943,
    "[unused971]": 976,
    "themselves": 3209,
    "budge": 24981,
    "irrigation": 12442,
    "tale": 6925,
    "[unused761]": 766,
    "4000": 20143,
    "cantor": 26519,
    "mandolin": 17687,
    "offensive": 5805,
    "\u063a": 1289,
    "deportation": 23702,
    "bhp": 22245,
    "defined": 4225,
    "binary": 12441,
    "##ving": 6455,
    "##ington": 7853,
    "4a": 26424,
    "deeper": 6748,
    "##rbin": 27366,
    "an": 2019,
    "auf": 21200,
    "##\u306d": 30196,
    "smaller": 3760,
    "panted": 28149,
    "southbound": 19751,
    "wetland": 22217,
    "\u0e17": 1412,
    "spitfire": 28323,
    "prefers": 19233,
    "##arding": 29154,
    "coyote": 20457,
    "##rons": 28212,
    "\u8c37": 1951,
    "tinged": 22683,
    "gets": 4152,
    "acclaim": 10761,
    "scar": 11228,
    "english": 2394,
    "prominently": 14500,
    "##45": 19961,
    "fancy": 11281,
    "forcing": 6932,
    "##rating": 15172,
    "##uming": 24270,
    "##\u3078": 30201,
    "winners": 4791,
    "attain": 18759,
    "dreaming": 12802,
    "bolivia": 11645,
    "1680": 24621,
    "beheaded": 28923,
    "directory": 14176,
    "interceptor": 24727,
    "vocals": 2955,
    "magnetic": 8060,
    "buds": 26734,
    "##aged": 18655,
    "##65": 26187,
    "sonya": 27926,
    "sensitivity": 14639,
    "##;": 29628,
    "dimensional": 8789,
    "nitrogen": 14114,
    "recognise": 17614,
    "alone": 2894,
    "miserable": 13736,
    "blushing": 25771,
    "##[": 29634,
    "heather": 9533,
    "pioneers": 13200,
    "entrances": 18084,
    "eel": 24315,
    "1741": 25280,
    "authentic": 14469,
    "\u0915": 1315,
    "direction": 3257,
    "zoo": 9201,
    "##zier": 21548,
    "251": 22582,
    "[unused367]": 372,
    "##most": 11800,
    "dazzling": 28190,
    "decreased": 10548,
    "feudal": 16708,
    "##nding": 15683,
    "averages": 20185,
    "\u2228": 1603,
    "hanged": 17818,
    "276": 25113,
    "##tsky": 26824,
    "grayson": 17556,
    "izzy": 16699,
    "pivotal": 20369,
    "holm": 28925,
    "allegedly": 9382,
    "network": 2897,
    "favoured": 16822,
    "maddox": 22730,
    "elvis": 12280,
    "rolled": 4565,
    "[unused925]": 930,
    "assyrian": 19950,
    "mingled": 25959,
    "philippe": 11169,
    "##aco": 22684,
    "brooks": 8379,
    "budget": 5166,
    "molecules": 10737,
    "jerked": 8245,
    "beale": 28371,
    "venom": 15779,
    "##mere": 13759,
    "[unused388]": 393,
    "300": 3998,
    "baton": 15302,
    "pops": 16949,
    "holders": 13304,
    "##iary": 17302,
    "chin": 5413,
    "mandates": 25979,
    "recognizable": 20123,
    "bun": 21122,
    "294": 28135,
    "\u4e16": 1745,
    "##ooping": 29046,
    "##roving": 22046,
    "##\u5b50": 30342,
    "nassau": 14646,
    "##pad": 15455,
    "honestly": 9826,
    "deleted": 17159,
    "obliged": 14723,
    "hand": 2192,
    "outgoing": 22011,
    "wary": 15705,
    "[unused462]": 467,
    "##hak": 20459,
    "voss": 24878,
    "##personal": 28823,
    "[unused615]": 620,
    "##bie": 11283,
    "\u2070": 1536,
    "cr": 13675,
    "boring": 11771,
    "changed": 2904,
    "##onte": 28040,
    "signatures": 16442,
    "costello": 21015,
    "barclay": 23724,
    "dalai": 28511,
    "##ries": 5134,
    "625": 22810,
    "reply": 7514,
    "flight": 3462,
    "hybrid": 8893,
    "[unused180]": 185,
    "estimates": 10035,
    "##\u30cf": 30244,
    "och": 28166,
    "\u0f56": 1431,
    "##rna": 12789,
    "leslie": 8886,
    "pointe": 26119,
    "interaction": 8290,
    "nah": 20976,
    "##edo": 26010,
    "injection": 13341,
    "bruins": 18159,
    "##cies": 9243,
    "##uz": 17040,
    "egyptian": 6811,
    "rev": 7065,
    "51st": 26017,
    "towel": 10257,
    "partners": 5826,
    "ideas": 4784,
    "interpreting": 25455,
    "exposure": 7524,
    "feedback": 12247,
    "umbrella": 12977,
    "rockies": 22366,
    "glee": 18874,
    "botanic": 27761,
    "wrought": 18481,
    "collectively": 13643,
    "colonists": 15526,
    "weighs": 21094,
    "[unused430]": 435,
    "##edd": 22367,
    "##akh": 27573,
    "destinations": 14345,
    "winery": 23910,
    "texture": 14902,
    "detected": 11156,
    "##gee": 18372,
    "conveyed": 21527,
    "frontiers": 28750,
    "peng": 26473,
    "hepatitis": 28389,
    "ledge": 18283,
    "squeezing": 15328,
    "anchorage": 21086,
    "munro": 20923,
    "since": 2144,
    "##gat": 20697,
    "alessandro": 17956,
    "prevalence": 20272,
    "bike": 7997,
    "carpenter": 10533,
    "orbits": 20347,
    "beaux": 20290,
    "electrified": 18042,
    "##\u00a2": 29645,
    "1737": 26738,
    "##kato": 26020,
    "##liga": 14715,
    "fabric": 8313,
    "church": 2277,
    "diocese": 5801,
    "flared": 14937,
    "liverpool": 6220,
    "ii": 2462,
    "transform": 10938,
    "isaac": 7527,
    "ui": 21318,
    "\u05d9": 1250,
    "alternately": 23554,
    "##\u06cc": 24830,
    "induce": 19653,
    "mall": 6670,
    "dual": 7037,
    "spared": 16891,
    "##ai": 4886,
    "academies": 20994,
    "barrett": 12712,
    "nearest": 7205,
    "accountant": 17907,
    "1675": 27194,
    "indus": 27746,
    "neighbors": 10638,
    "##earing": 27242,
    "bronx": 14487,
    "valet": 27238,
    "zeke": 18270,
    "341": 28358,
    "1652": 28853,
    "gazing": 16448,
    "eli": 12005,
    "enduring": 16762,
    "mesh": 20437,
    "perceived": 8690,
    "sesame": 23605,
    "\u028b": 1133,
    "brain": 4167,
    "concluding": 16228,
    "##ming": 6562,
    "##ended": 21945,
    "joining": 5241,
    "##chase": 26300,
    "thereby": 8558,
    "##mies": 28397,
    "apply": 6611,
    "##fb": 26337,
    "hostility": 18258,
    "tribal": 8807,
    "[unused1]": 2,
    "taxi": 10095,
    "trey": 14826,
    "carl": 5529,
    "##day": 10259,
    "drinking": 5948,
    "alumni": 9441,
    "loaned": 13190,
    "operate": 5452,
    "specified": 9675,
    "battlefield": 11686,
    "dummy": 24369,
    "clasped": 16763,
    "thru": 27046,
    "##\u5742": 30329,
    "fulbright": 26695,
    "rodney": 13898,
    "auction": 10470,
    "##\u4f8d": 30291,
    "cite": 21893,
    "suzanne": 15146,
    "reviews": 4391,
    "transitions": 22166,
    "airship": 27636,
    "strauss": 16423,
    "doping": 23799,
    "[unused602]": 607,
    "patsy": 25382,
    "much": 2172,
    "crossing": 5153,
    "clone": 17598,
    "fay": 23201,
    "transparency": 16987,
    "veil": 15562,
    "##bat": 14479,
    "azure": 24296,
    "##led": 3709,
    "depictions": 20818,
    "motivated": 12774,
    "archie": 13255,
    "##rians": 23543,
    "tia": 27339,
    "reflective": 21346,
    "##el": 2884,
    "detect": 11487,
    "wheeler": 12819,
    "nominees": 17853,
    "video": 2678,
    "infants": 16725,
    "##ception": 24422,
    "sheffield": 8533,
    "ann": 5754,
    "teasing": 12216,
    "guardian": 6697,
    "chain": 4677,
    "ongoing": 7552,
    "[unused784]": 789,
    "invaders": 17347,
    "tae": 22297,
    "juno": 20788,
    "injected": 19737,
    "sloop": 24786,
    "diagnostic": 16474,
    "##\u2261": 30134,
    "denver": 7573,
    "1985": 3106,
    "attract": 9958,
    "pp": 4903,
    "torpedo": 9862,
    "juris": 27551,
    "murmured": 7152,
    "submerged": 13563,
    "catholics": 10774,
    "applications": 5097,
    "crusader": 25237,
    "emissions": 11768,
    "exposing": 14944,
    "filling": 8110,
    "foyer": 16683,
    "lucknow": 23571,
    "pere": 23976,
    "##\u624b": 30384,
    "##ow": 5004,
    "\u4e00": 1740,
    "laboratory": 5911,
    "adding": 5815,
    "tractor": 16358,
    "affiliates": 18460,
    "stephan": 15963,
    "1751": 24440,
    "racism": 14398,
    "creator": 8543,
    "talking": 3331,
    "categorized": 20427,
    "clement": 12223,
    "housed": 7431,
    "everything": 2673,
    "rubbed": 7503,
    "slant": 27474,
    "assemblies": 17720,
    "1976": 3299,
    "forsyth": 29434,
    "clyde": 12085,
    "placement": 11073,
    "oracle": 14721,
    "\u0baa": 1388,
    "aeronautics": 27459,
    "[unused525]": 530,
    "adolph": 28564,
    "flipped": 9357,
    "horace": 12757,
    "balloon": 13212,
    "terence": 22677,
    "horizontal": 9876,
    "titus": 18828,
    "\u0272": 1123,
    "jubilee": 13078,
    "nazi": 6394,
    "outlook": 17680,
    "darkness": 4768,
    "celebrating": 12964,
    "croatia": 8097,
    "[unused48]": 49,
    "helm": 16254,
    "negotiated": 13630,
    "##laya": 22923,
    "inadvertently": 21089,
    "cartridges": 22998,
    "bolsheviks": 28755,
    "vii": 8890,
    "havana": 15278,
    "[unused236]": 241,
    "capsule": 18269,
    "##itz": 8838,
    "##au": 4887,
    "bearded": 23905,
    "boar": 24187,
    "living": 2542,
    "copeland": 27303,
    "bible": 6331,
    "endured": 16753,
    "##zhou": 9791,
    "##hesis": 24124,
    "defendants": 16362,
    "jointly": 10776,
    "76": 6146,
    "preparing": 8225,
    "seeking": 6224,
    "marshal": 8610,
    "purposely": 24680,
    "\u6c5f": 1897,
    "##lok": 29027,
    "101": 7886,
    "fontaine": 25749,
    "dwarf": 11229,
    "incentive": 20438,
    "belonged": 6272,
    "strained": 12250,
    "wooded": 17172,
    "##ord": 8551,
    "apart": 4237,
    "##resh": 21898,
    "intimidated": 28028,
    "hilary": 22744,
    "italy": 3304,
    "ta": 11937,
    "constabulary": 23791,
    "cade": 18615,
    "waters": 5380,
    "wines": 14746,
    "relating": 8800,
    "##iver": 16402,
    "acquaintance": 18363,
    "[unused848]": 853,
    "strongly": 6118,
    "vantage": 27274,
    "relation": 7189,
    "attackers": 17857,
    "##vere": 28943,
    "controversies": 25962,
    "denim": 26762,
    "learners": 26262,
    "symbolic": 12613,
    "##ite": 4221,
    "\u82b1": 1940,
    "mess": 6752,
    "##fus": 25608,
    "persist": 29486,
    "\u00f7": 1099,
    "##ination": 12758,
    "##kala": 26907,
    "terra": 14403,
    "[unused777]": 782,
    "museums": 9941,
    "226": 21035,
    "exhaustion": 15575,
    "charm": 11084,
    "reverted": 16407,
    "highlight": 12944,
    "\u2096": 1565,
    "side": 2217,
    "thrust": 7400,
    "corn": 9781,
    "##kam": 27052,
    "barbed": 25007,
    "colorful": 14231,
    "quest": 8795,
    "##xia": 14787,
    "##cm": 27487,
    "asylum": 11386,
    "cars": 3765,
    "inspectors": 28421,
    "reddy": 18998,
    "\uff0e": 1991,
    "sy": 25353,
    "##hiff": 25798,
    "executed": 6472,
    "pitchfork": 22355,
    "karen": 8129,
    "labeled": 12599,
    "##\u2606": 30148,
    "ked": 16135,
    "should": 2323,
    "mayo": 14415,
    "##gizing": 28660,
    "##ved": 7178,
    "typing": 22868,
    "tingle": 25792,
    "##tsu": 10422,
    "clinched": 18311,
    "kilda": 22633,
    "denominations": 17384,
    "horned": 26808,
    "opener": 16181,
    "carlson": 22226,
    "grimm": 24287,
    "choices": 9804,
    "padre": 28612,
    "[unused121]": 126,
    "lies": 3658,
    "waterfront": 16317,
    "\u30de": 1723,
    "strawberry": 16876,
    "##mber": 21784,
    "##\u110c": 30000,
    "atmosphere": 7224,
    "##mist": 23738,
    "geological": 9843,
    "tiger": 6816,
    "##ally": 3973,
    "analyzing": 20253,
    "gmbh": 18289,
    "\u2194": 1587,
    "tags": 22073,
    "dotted": 20384,
    "zach": 12397,
    "database": 7809,
    "arthritis": 27641,
    "trickle": 26027,
    "16th": 5767,
    "[unused985]": 990,
    "##man": 2386,
    "faded": 8105,
    "facilitated": 19601,
    "##pping": 14853,
    "nutrient": 26780,
    "behaviour": 9164,
    "devastated": 13879,
    "preoccupied": 23962,
    "bug": 11829,
    "done": 2589,
    "nausea": 19029,
    "tradition": 4535,
    "##pg": 26952,
    "glow": 8652,
    "[unused475]": 480,
    "\u5185": 1773,
    "##vances": 26711,
    "yearly": 12142,
    "[unused497]": 502,
    "355": 26271,
    "colts": 14390,
    "aforementioned": 17289,
    "minimal": 10124,
    "doe": 18629,
    "liable": 20090,
    "muttering": 22581,
    "stimuli": 22239,
    "runner": 5479,
    "prohibition": 13574,
    "campaign": 3049,
    "beautifully": 17950,
    "##optera": 25324,
    "chewing": 17492,
    "consist": 8676,
    "[unused725]": 730,
    "orderly": 23589,
    "reactive": 22643,
    "breton": 16659,
    "originally": 2761,
    "tonic": 28157,
    "guido": 20239,
    "pondered": 28347,
    "breakup": 19010,
    "renegade": 28463,
    "lust": 11516,
    "##48": 18139,
    "##\u52a0": 30305,
    "winged": 14462,
    "##\u6d77": 30428,
    "discoveries": 15636,
    "##\u4e5f": 30276,
    "alongside": 4077,
    "flushing": 23519,
    "##zin": 17168,
    "##brick": 25646,
    "annex": 17827,
    "cost": 3465,
    "customary": 16120,
    "wrestle": 25579,
    "\u0280": 1127,
    "longing": 15752,
    "papers": 4981,
    "entrepreneurship": 20213,
    "serves": 4240,
    "sympathy": 11883,
    "invitations": 29492,
    "plantations": 14979,
    "##vier": 14356,
    "herr": 23506,
    "shortlisted": 21353,
    "##ining": 24002,
    "processor": 13151,
    "##power": 11452,
    "moist": 11052,
    "psychology": 6825,
    "race": 2679,
    "##\u0993": 29888,
    "manfred": 19149,
    "ib": 21307,
    "##\u85e4": 30470,
    "##ller": 10820,
    "institutions": 4896,
    "presidents": 11274,
    "redistribution": 25707,
    "##ology": 6779,
    "intriguing": 23824,
    "steppe": 29096,
    "weaken": 23021,
    "collateral": 24172,
    "la": 2474,
    "##analysis": 25902,
    "[unused951]": 956,
    "pointless": 23100,
    "riding": 5559,
    "##\u03c2": 19579,
    "snail": 10879,
    "valleys": 12467,
    "rani": 21617,
    "patrolling": 24248,
    "##thest": 20515,
    "##ergy": 24395,
    "[unused428]": 433,
    "##arium": 17285,
    "taboo": 27505,
    "bethlehem": 19360,
    "quasi": 17982,
    "xp": 26726,
    "sparta": 21251,
    "##\u209b": 30098,
    "##used": 13901,
    "andrei": 18125,
    "darby": 25844,
    "salon": 11090,
    "plata": 19534,
    "##pass": 15194,
    "[unused750]": 755,
    "hooker": 17074,
    "##\u03b8": 29725,
    "[unused526]": 531,
    "ale": 15669,
    "##eria": 11610,
    "astros": 22058,
    "chesterfield": 22699,
    "condemnation": 26248,
    "feminism": 20050,
    "flaming": 19091,
    "hammond": 11309,
    "ray": 4097,
    "penetration": 20015,
    "body": 2303,
    "duly": 25073,
    "baron": 5797,
    "##inda": 23938,
    "enterprises": 9926,
    "meets": 6010,
    "reassigned": 18026,
    "burials": 23109,
    "tuition": 15413,
    "hiv": 9820,
    "##gman": 25494,
    "##plex": 19386,
    "##lassified": 24938,
    "del": 3972,
    "rises": 9466,
    "sorted": 19616,
    "elegant": 11552,
    "##rell": 16230,
    "bowie": 14598,
    "nomenclature": 23718,
    "##zen": 10431,
    "\u00a32": 21853,
    "mast": 15429,
    "elijah": 14063,
    "hold": 2907,
    "ball": 3608,
    "antiquities": 21387,
    "##ovich": 12303,
    "forwards": 19390,
    "bellowed": 27386,
    "freeze": 13184,
    "invention": 11028,
    "\u09a3": 1361,
    "##sie": 11741,
    "analysts": 18288,
    "basque": 13915,
    "subjects": 5739,
    "sampling": 16227,
    "counseling": 17041,
    "luz": 26214,
    "corona": 21887,
    "1854": 8421,
    "2017": 2418,
    "##\u4e94": 30279,
    "zodiac": 28501,
    "\u0638": 1287,
    "composition": 5512,
    "hana": 26048,
    "maverick": 27187,
    "##creen": 24410,
    "rte": 20375,
    "furnace": 17533,
    "reinstated": 18671,
    "1852": 8784,
    "agile": 29003,
    "frontman": 21597,
    "##amo": 22591,
    "##ls": 4877,
    "build": 3857,
    "astor": 25159,
    "plain": 5810,
    "era": 3690,
    "##haus": 13821,
    "slender": 10944,
    "presidency": 8798,
    "archer": 11024,
    "whorls": 25637,
    "hurting": 11878,
    "anytime": 15933,
    "sire": 15785,
    "##boot": 27927,
    "acres": 4631,
    "greet": 17021,
    "electorate": 13694,
    "votes": 4494,
    "1872": 7572,
    "wherein": 16726,
    "sutton": 11175,
    "stampede": 29375,
    "assurance": 16375,
    "imposed": 9770,
    "blasting": 26239,
    "[unused554]": 559,
    "inscribed": 14551,
    "flyers": 16217,
    "gaps": 16680,
    "relevance": 21923,
    "spears": 13957,
    "##bery": 22509,
    "##rmin": 27512,
    "weaver": 14077,
    "expensive": 6450,
    "tribune": 10969,
    "##ckle": 19250,
    "glamour": 22439,
    "massimo": 28080,
    "scrapped": 14553,
    "abraham": 8181,
    "luzon": 21622,
    "##ady": 18632,
    "thirty": 4228,
    "streamed": 18498,
    "\u0252": 1111,
    "blanc": 18698,
    "amend": 27950,
    "bosch": 25936,
    "defines": 11859,
    "judgment": 8689,
    "cleaned": 12176,
    "differentiated": 24374,
    "##\u2227": 30129,
    "pear": 28253,
    "23": 2603,
    "[unused60]": 61,
    "##av": 11431,
    "##iaceae": 23357,
    "sleep": 3637,
    "##ckman": 24080,
    "[unused596]": 601,
    "sired": 26940,
    "inference": 28937,
    "mediated": 19872,
    "##room": 9954,
    "##mble": 19661,
    "15th": 6286,
    "boards": 7923,
    "progresses": 22901,
    "panther": 15133,
    "advance": 5083,
    "basic": 3937,
    "reinforcements": 14214,
    "impaired": 18234,
    "elsie": 24603,
    "lengthy": 12401,
    "squid": 26852,
    "proficiency": 26293,
    "jana": 23341,
    "hubert": 15346,
    "placed": 2872,
    "necessitated": 29611,
    "boyer": 23456,
    "##oy": 6977,
    "##\u1111": 30004,
    "\u03b9": 1163,
    "##\u0639": 29830,
    "musically": 21385,
    "uganda": 10031,
    "assembled": 9240,
    "convicts": 24948,
    "\uff0f": 1992,
    "arabia": 9264,
    "goddess": 7804,
    "lea": 12203,
    "turbulence": 29083,
    "sneaking": 20727,
    "minute": 3371,
    "havilland": 23994,
    "\u092e": 1331,
    "awesome": 12476,
    "battery": 6046,
    "##ft": 6199,
    "ot": 27178,
    "$": 1002,
    "turquoise": 28653,
    "custody": 9968,
    "iris": 11173,
    "lyrical": 16376,
    "vanishing": 24866,
    "draught": 25349,
    "trade": 3119,
    "##\u884c": 30471,
    "buddy": 8937,
    "onset": 14447,
    "deep": 2784,
    "##\u2032": 30066,
    "warily": 23625,
    "athletics": 6482,
    "cycle": 5402,
    "##chrome": 20366,
    "loosened": 22456,
    "yuri": 14331,
    "pu": 16405,
    "\u5fc3": 1849,
    "com": 4012,
    "classes": 4280,
    "thread": 11689,
    "\u093e": 1340,
    "[unused986]": 991,
    "##oza": 25036,
    "##\u30db": 30248,
    "chiang": 17684,
    "needy": 23927,
    "\u0627": 1270,
    "cops": 10558,
    "lungs": 8948,
    "macbeth": 25182,
    "bradford": 9999,
    "admits": 14456,
    "editing": 9260,
    "rpg": 22531,
    "ordered": 3641,
    "turmoil": 17930,
    "jean": 3744,
    "##per": 4842,
    "skipped": 16791,
    "1722": 26689,
    "popped": 10538,
    "##chal": 18598,
    "ringo": 25589,
    "[unused47]": 48,
    "##polis": 17699,
    "swallows": 26436,
    "complain": 17612,
    "amalgamated": 17143,
    "##cular": 15431,
    "217": 20335,
    "horde": 21038,
    "hk": 22563,
    "majority": 3484,
    "appointing": 28050,
    "brennan": 13962,
    "slim": 11754,
    "canceled": 13261,
    "full": 2440,
    "##tute": 24518,
    "lengths": 10742,
    "dell": 12418,
    "monitoring": 8822,
    "sensations": 21378,
    "##morphic": 18078,
    "##llan": 19036,
    "honduras": 14373,
    "deafening": 28840,
    "##oo": 9541,
    "strangers": 12358,
    "20th": 3983,
    "##ter": 3334,
    "clenching": 23970,
    "rush": 5481,
    "yugoslavia": 8936,
    "##ops": 11923,
    "darting": 24567,
    "liability": 14000,
    "dentistry": 26556,
    "##pts": 22798,
    "grounded": 16764,
    "philanthropist": 15246,
    "\u099c": 1358,
    "pub": 9047,
    "##wire": 20357,
    "##drome": 29171,
    "##shire": 7430,
    "sorry": 3374,
    "twinned": 25901,
    "violet": 8766,
    "housekeeper": 22583,
    "subdistrict": 24150,
    "carr": 12385,
    "fertility": 17376,
    "crime": 4126,
    "lawn": 10168,
    "schwartz": 16756,
    "331": 27533,
    "houston": 5395,
    "alternatives": 15955,
    "anguish": 21782,
    "collaborative": 12317,
    "lee": 3389,
    "[unused87]": 88,
    "powerhouse": 24006,
    "\u0648": 1298,
    "\u4fe1": 1767,
    "telenovela": 25754,
    "134": 15170,
    "brightened": 28996,
    "##iste": 27870,
    "churchill": 10888,
    "packard": 24100,
    "accuse": 26960,
    "moisture": 14098,
    "barnsley": 25139,
    "bella": 12101,
    "[unused324]": 329,
    "harm": 7386,
    "rohan": 28605,
    "##core": 17345,
    "regulatory": 10738,
    "westwood": 21730,
    "gliding": 20292,
    "aston": 14327,
    "certainty": 15855,
    "##ids": 9821,
    "##cd": 19797,
    "evolutionary": 12761,
    "##\u98a8": 30503,
    "eleanor": 10508,
    "[unused619]": 624,
    "gale": 14554,
    "##va": 3567,
    "juveniles": 25406,
    "anti": 3424,
    "\u2190": 1583,
    "lest": 26693,
    "packaged": 21972,
    "##unds": 26698,
    "unesco": 12239,
    "##ettes": 26592,
    "##urable": 23086,
    "##my": 8029,
    "[unused851]": 856,
    "appropriate": 6413,
    "span": 8487,
    "merits": 22617,
    "##channel": 26058,
    "[unused505]": 510,
    "maximus": 21692,
    "##worthy": 13966,
    "##shu": 14235,
    "##nare": 26148,
    "1b": 26314,
    "[unused252]": 257,
    "##\u0621": 29815,
    "##\u6587": 30387,
    "robson": 23698,
    "##llet": 22592,
    "##town": 4665,
    "constantin": 27991,
    "##elli": 13348,
    "uppsala": 25720,
    "expertise": 11532,
    "swamps": 22722,
    "[unused759]": 764,
    "convince": 8054,
    "earthquakes": 17932,
    "proximity": 10039,
    "breakaway": 26321,
    "guts": 18453,
    "subtly": 28797,
    "##now": 19779,
    "conception": 13120,
    "##usly": 27191,
    "clubs": 4184,
    "dso": 22951,
    "topology": 19587,
    "grew": 3473,
    "establishment": 5069,
    "[unused797]": 802,
    "convenient": 14057,
    "tanaka": 21829,
    "metabolic": 21453,
    "[unused755]": 760,
    "\u4e3b": 1747,
    "wiggled": 26750,
    "based": 2241,
    "cases": 3572,
    "lunged": 17755,
    "newfound": 27608,
    "terrorists": 15554,
    "ram": 8223,
    "##etz": 26327,
    "eras": 28500,
    "hourly": 21462,
    "relaunched": 26391,
    "\u30a7": 1697,
    "francois": 8173,
    "cody": 13326,
    "folly": 26272,
    "deceased": 10181,
    "intercity": 20651,
    "wade": 10653,
    "fooled": 25857,
    "mig": 19117,
    "operations": 3136,
    "installation": 8272,
    "cameroon": 13841,
    "siam": 25583,
    "scott": 3660,
    "willoughby": 24919,
    "262": 21950,
    "##ache": 15395,
    "ramos": 18882,
    "brawl": 23244,
    "##fold": 10371,
    "unaffected": 24720,
    "\u03c9": 1179,
    "allegro": 25319,
    "following": 2206,
    "1880": 6756,
    "##xious": 25171,
    "probing": 28664,
    "warehouses": 23319,
    "photo": 6302,
    "checking": 9361,
    "regulations": 7040,
    "[unused907]": 912,
    "broken": 3714,
    "1646": 28783,
    "curved": 9203,
    "subsequently": 3525,
    "depot": 8470,
    "weathered": 28445,
    "white": 2317,
    "beau": 17935,
    "hermit": 24308,
    "contemporary": 3824,
    "[unused162]": 167,
    "donkey": 20325,
    "journeys": 19147,
    "tavern": 13090,
    "##sman": 11512,
    "constance": 15713,
    "mandated": 16714,
    "##\u10dd": 29986,
    "confiscated": 17182,
    "curl": 15390,
    "##eh": 11106,
    "diminished": 15911,
    "##54": 27009,
    "##bs": 5910,
    "pains": 20398,
    "metro": 6005,
    "parasitic": 26045,
    "liberal": 4314,
    "lila": 19286,
    "deviation": 24353,
    "pad": 11687,
    "tube": 7270,
    "chronology": 17873,
    "whitley": 27007,
    "escort": 8620,
    "written": 2517,
    "companies": 3316,
    "*": 1008,
    "dominion": 13738,
    "##ci": 6895,
    "lutheran": 10034,
    "abandonment": 22290,
    "1580": 28278,
    "juarez": 25398,
    "\u09af": 1371,
    "images": 4871,
    "implicated": 20467,
    "cliffs": 13333,
    "beings": 9552,
    "\u0268": 1118,
    "c2": 29248,
    "##\u0f0d": 29961,
    "fined": 16981,
    "collect": 8145,
    "dismay": 20006,
    "##tate": 12259,
    "##\u10d1": 29975,
    "shandong": 25768,
    "badly": 6649,
    "violent": 6355,
    "reverse": 7901,
    "aligned": 13115,
    "hicks": 17221,
    "powerplant": 19526,
    "188": 19121,
    "drawings": 9254,
    "##etano": 28752,
    "goodbye": 9119,
    "pregnant": 6875,
    "\u064a": 1300,
    "meyrick": 15228,
    "class": 2465,
    "liu": 8607,
    "##ous": 3560,
    "city": 2103,
    "##ntine": 26730,
    "worms": 16253,
    "sourced": 23184,
    "usable": 24013,
    "ecuador": 10378,
    "burned": 5296,
    "##olate": 19425,
    "##pods": 22925,
    "##urs": 9236,
    "##cot": 24310,
    "scouting": 14299,
    "distorted": 19112,
    "livery": 18475,
    "statues": 11342,
    "deutsche": 11605,
    "munich": 7469,
    "heads": 4641,
    "jin": 9743,
    "patterns": 7060,
    "##\u0996": 29890,
    "crowd": 4306,
    "1758": 16832,
    "prima": 21111,
    "quantity": 11712,
    "mixer": 23228,
    "##tea": 27058,
    "assessments": 20794,
    "##oric": 29180,
    "##estra": 26199,
    "##ling": 2989,
    "architecture": 4294,
    "1888": 6690,
    "[unused496]": 501,
    "cornwall": 10387,
    "##bai": 26068,
    "method": 4118,
    "suppress": 16081,
    "tells": 4136,
    "trois": 25527,
    "og": 13958,
    "##ians": 7066,
    "##s": 2015,
    "\u0bc7": 1398,
    "[unused369]": 374,
    "tak": 27006,
    "##ray": 9447,
    "romney": 19615,
    "towels": 24213,
    "bonnie": 12220,
    "intimate": 10305,
    "duncan": 7343,
    "supply": 4425,
    "nurse": 6821,
    "[unused853]": 858,
    "hadley": 21681,
    "##aj": 13006,
    "gown": 11739,
    "hindus": 18221,
    "##breakers": 27623,
    "##hmi": 26837,
    "##kas": 13716,
    "##mpt": 27718,
    "backwards": 11043,
    "##sto": 16033,
    "befriended": 23386,
    "godzilla": 26631,
    "leaking": 24325,
    "conquered": 11438,
    "discourse": 15152,
    "##raus": 25965,
    "##ith": 8939,
    "hyde": 11804,
    "cambrian": 29228,
    "coordinated": 14206,
    "tender": 8616,
    "farms": 8623,
    "##d": 2094,
    "[unused255]": 260,
    "[unused331]": 336,
    "exercise": 6912,
    "self": 2969,
    "dynamic": 8790,
    "appointed": 2805,
    "422": 29269,
    "buy": 4965,
    "##ople": 27469,
    "enabling": 12067,
    "controversial": 6801,
    "##ssed": 29417,
    "junction": 5098,
    "family": 2155,
    "yoo": 26823,
    "sediment": 19671,
    "harvey": 7702,
    "ch": 10381,
    "oxide": 15772,
    "enslaved": 22216,
    "guarding": 17019,
    "meal": 7954,
    "raceway": 23018,
    "##hopper": 27330,
    "republicans": 10643,
    "exhibiting": 22922,
    "sulawesi": 29078,
    "mauritius": 18004,
    "branch": 3589,
    "cyclone": 11609,
    "##wood": 3702,
    "broom": 23528,
    "rehabilitation": 11252,
    "passenger": 4628,
    "ignacio": 22988,
    "medicare": 27615,
    "##ching": 8450,
    "births": 18250,
    "dude": 12043,
    "frankfurt": 9780,
    "runoff": 19550,
    "##ogen": 23924,
    "regulator": 21618,
    "scrubbed": 27820,
    "##isen": 28992,
    "upland": 25770,
    "barbara": 6437,
    "##orous": 25373,
    "##ode": 10244,
    "jing": 21536,
    "struck": 4930,
    "resorts": 16511,
    "[unused569]": 574,
    "legitimate": 11476,
    "keepers": 24018,
    "jax": 13118,
    "mag": 23848,
    "##yson": 25385,
    "blanco": 20036,
    "soothe": 28384,
    "##open": 26915,
    "criterion": 19229,
    "eyebrows": 8407,
    "donate": 21357,
    "south": 2148,
    "##ragan": 28905,
    "attributed": 7108,
    "though": 2295,
    "ref": 25416,
    "benito": 23595,
    "conduct": 6204,
    "sensors": 13907,
    "##\u5408": 30318,
    "captives": 21496,
    "almond": 26011,
    "runaway": 19050,
    "rusty": 13174,
    "boil": 26077,
    "taxon": 28521,
    "##kou": 24861,
    "broadcast": 3743,
    "dd": 20315,
    "vampire": 4393,
    "##rod": 14127,
    "secretaries": 23660,
    "sudden": 5573,
    "baxter": 14664,
    "milling": 22491,
    "hood": 7415,
    "gould": 14913,
    "pursued": 9505,
    "##\u7f8e": 30461,
    "proposes": 17146,
    "##dez": 24601,
    "##ros": 7352,
    "swell": 18370,
    "##gon": 7446,
    "atv": 29108,
    "thornton": 14630,
    "literature": 3906,
    "foolish": 13219,
    "brunette": 27261,
    "pan": 6090,
    "bomb": 5968,
    "leaks": 29324,
    "unusual": 5866,
    "marlon": 25861,
    "dunne": 26553,
    "constitute": 12346,
    "lucinda": 28261,
    "dishes": 10447,
    "feels": 5683,
    "##ually": 28488,
    "vertex": 19449,
    "##fahan": 28975,
    "nope": 16780,
    "##ball": 7384,
    "slang": 21435,
    "cook": 5660,
    "##eum": 14820,
    "staggered": 14648,
    "surfaces": 9972,
    "lattice": 17779,
    "##meral": 28990,
    "##ulating": 10924,
    "always": 2467,
    "spouse": 18591,
    "strongest": 10473,
    "wakefield": 16045,
    "##iest": 10458,
    "[unused213]": 218,
    "[unused127]": 132,
    "rowan": 14596,
    "recovering": 13400,
    "knuckles": 13513,
    "clad": 13681,
    "oliver": 6291,
    "##balls": 18510,
    "mediterranean": 7095,
    "gabby": 27183,
    "interference": 11099,
    "park": 2380,
    "##wc": 16526,
    "prints": 11204,
    "##9th": 25660,
    "billionaire": 22301,
    "##rik": 15564,
    "v": 1058,
    "amnesty": 16154,
    "gamble": 18503,
    "##tania": 21013,
    "##ni": 3490,
    "##nging": 22373,
    "##gara": 24864,
    "functional": 8360,
    "##xide": 19491,
    "##nesia": 21509,
    "sanctioned": 14755,
    "protesters": 13337,
    "##ble": 3468,
    "convenience": 15106,
    "internally": 16058,
    "##kov": 7724,
    "paxton": 27765,
    "##uous": 8918,
    "masked": 16520,
    "\u5b50": 1816,
    "worsened": 27622,
    "designation": 8259,
    "##nant": 16885,
    "slide": 7358,
    "cuban": 9642,
    "##chers": 21844,
    "iconic": 14430,
    "##ulsive": 23004,
    "mask": 7308,
    "##\u6cbb": 30426,
    "wave": 4400,
    "tossed": 7463,
    "maxi": 21510,
    "dolly": 19958,
    "goaltender": 21437,
    "proposals": 10340,
    "omar": 13192,
    "triangle": 9546,
    "victim": 6778,
    "crashed": 8007,
    "lights": 4597,
    "interned": 26345,
    "##hering": 22658,
    "deformation": 29130,
    "[unused74]": 75,
    "indigo": 22472,
    "\u795e": 1925,
    "2010s": 26817,
    "choreographed": 23317,
    "##star": 14117,
    "parramatta": 22820,
    "foundation": 3192,
    "1794": 13199,
    "planting": 14685,
    "halle": 19769,
    "part": 2112,
    "dialed": 21300,
    "croatian": 7963,
    "##cal": 9289,
    "##b": 2497,
    "avant": 14815,
    "contestants": 10584,
    "mrna": 28848,
    "##zan": 13471,
    "##dication": 25027,
    "pornography": 19378,
    "graffiti": 17990,
    "##ities": 6447,
    "##leaf": 19213,
    "[unused411]": 416,
    "addressed": 8280,
    "hospitalized": 24735,
    "ld": 25510,
    "##\u05e4": 29807,
    "frederick": 5406,
    "sorting": 22210,
    "turtles": 16489,
    "vigorously": 22400,
    "incentives": 21134,
    "limerick": 15679,
    "celaena": 29252,
    "region": 2555,
    "rub": 14548,
    "greyhound": 21220,
    "winfield": 24739,
    "scholarship": 6566,
    "serialized": 27289,
    "huntington": 16364,
    "momma": 23603,
    "dr": 2852,
    "force": 2486,
    "##lands": 8653,
    "##kowski": 15449,
    "[unused711]": 716,
    "enabled": 9124,
    "registering": 25719,
    "sagged": 26719,
    "\u30ce": 1717,
    "##frey": 22586,
    "##neo": 23585,
    "##plicity": 27293,
    "##copic": 26461,
    "flew": 5520,
    "mainstream": 7731,
    "1970s": 3955,
    "reported": 2988,
    "benin": 21164,
    "intercontinental": 18725,
    "traffic": 4026,
    "winthrop": 28974,
    "straightforward": 19647,
    "1692": 28622,
    "signing": 6608,
    "\u2092": 1562,
    "lombard": 23441,
    "1756": 22370,
    "collision": 12365,
    "ballads": 18456,
    "rulers": 11117,
    "##ings": 8613,
    "##obe": 20891,
    "manuel": 7762,
    "##\u5f73": 30371,
    "via": 3081,
    "reactivated": 28577,
    "##growth": 26982,
    "indicated": 5393,
    "##woods": 25046,
    "curb": 13730,
    "hoisted": 27269,
    "elevated": 8319,
    "paramount": 11734,
    "malayalam": 12998,
    "##hein": 26496,
    "pauline": 15595,
    "afro": 17694,
    "##cence": 29320,
    "##nac": 18357,
    "vikings": 13468,
    "##rand": 13033,
    "variance": 23284,
    "##ssler": 23385,
    "jed": 24401,
    "telegraph": 10013,
    "village": 2352,
    "gma": 20917,
    "demolition": 12451,
    "decrease": 9885,
    "foreword": 23059,
    "roared": 14242,
    "[unused682]": 687,
    "##ilia": 27861,
    "dans": 18033,
    "[unused940]": 945,
    "contest": 5049,
    "ambitions": 19509,
    "locate": 12453,
    "measurement": 10903,
    "papacy": 25097,
    "finish": 3926,
    "sends": 10255,
    "supreme": 4259,
    "gazette": 11391,
    "belt": 5583,
    "hardcover": 20990,
    "rana": 22175,
    "##tosis": 25950,
    "##mont": 9629,
    "breakfast": 6350,
    "interim": 9455,
    "parker": 6262,
    "regarded": 5240,
    "kazan": 22001,
    "##\u0628\u0627\u062f": 25799,
    "commit": 10797,
    "##gor": 20255,
    "beginnings": 16508,
    "re": 2128,
    "##\u026a": 29685,
    "vanderbilt": 17066,
    "alphabet": 12440,
    "isis": 18301,
    "herzegovina": 11453,
    "relevant": 7882,
    "wharton": 24249,
    "kyushu": 25885,
    "sponsored": 6485,
    "sakura": 23066,
    "landing": 4899,
    "##itative": 29293,
    "keynote": 25569,
    "##\u1166": 30009,
    "##\u5dde": 30362,
    "anger": 4963,
    "##ados": 28118,
    "pyramid": 11918,
    "editor": 3559,
    "[unused41]": 42,
    "##sies": 14625,
    "crab": 18081,
    "trousers": 15292,
    "1893": 6489,
    "aliens": 12114,
    "fright": 25966,
    "nipple": 14298,
    "clenched": 8555,
    "##vera": 26061,
    "germain": 19192,
    "collier": 20466,
    "shattering": 21797,
    "snails": 13482,
    "accordance": 10388,
    "sank": 7569,
    "given": 2445,
    "##uche": 19140,
    "archaic": 19261,
    "conversation": 4512,
    "deadline": 15117,
    "ruins": 8435,
    "too": 2205,
    "populous": 20151,
    "je": 15333,
    "confirmation": 13964,
    "##king": 6834,
    "##\u4eba": 30282,
    "directorate": 13634,
    "flushed": 12953,
    "pursuits": 23719,
    "sava": 28350,
    "deer": 8448,
    "pajamas": 27621,
    "cock": 10338,
    "7": 1021,
    "[unused55]": 56,
    "##tist": 16774,
    "speculated": 15520,
    "1828": 11517,
    "##ib": 12322,
    "wrath": 14532,
    "##ciation": 23247,
    "select": 7276,
    "##rza": 24175,
    "scared": 6015,
    "currie": 20667,
    "amusement": 9778,
    "##ired": 27559,
    "comprise": 15821,
    "##terol": 27833,
    "[unused345]": 350,
    "rfc": 14645,
    "[unused706]": 711,
    "verdict": 14392,
    "wilton": 26407,
    "gym": 9726,
    "reflected": 7686,
    "##\uff0d": 30516,
    "adaptation": 6789,
    "sol": 14017,
    "bombing": 8647,
    "valle": 20171,
    "attendants": 26727,
    "soundtracks": 24245,
    "##hunter": 25629,
    "219": 20636,
    "\u2090": 1560,
    "1860": 7313,
    "[unused189]": 194,
    "coca": 16787,
    "muscle": 6740,
    "preacher": 14512,
    "novelty": 21160,
    "riders": 8195,
    "rustling": 29188,
    "container": 11661,
    "##ower": 25114,
    "basics": 24078,
    "##ioms": 29178,
    "defenses": 13345,
    "backs": 10457,
    "fated": 27442,
    "winston": 10180,
    "##otho": 29288,
    "impacts": 14670,
    "sanford": 21153,
    "##dent": 16454,
    "[unused204]": 209,
    "stockton": 19161,
    "conclude": 16519,
    "##inski": 19880,
    "##\u0e22": 29952,
    "marlene": 26921,
    "plotted": 27347,
    "mumbled": 11567,
    "reject": 15454,
    "okay": 3100,
    "chuckles": 26088,
    "##oted": 27428,
    "##tral": 21493,
    "nes": 24524,
    "##hips": 19801,
    "harlan": 24276,
    "aggressive": 9376,
    "prophet": 12168,
    "onions": 24444,
    "claude": 8149,
    "##\u27e8": 30155,
    "leicestershire": 20034,
    "guard": 3457,
    "##henko": 19767,
    "##chaft": 29043,
    "toyota": 11742,
    "\u6c35": 1894,
    "limp": 14401,
    "supplemental": 27024,
    "morning": 2851,
    "##ium": 5007,
    "357": 26231,
    "kirby": 15129,
    "angus": 13682,
    "##stle": 22516,
    "1969": 3440,
    "swallowed": 7351,
    "##sden": 27903,
    "tears": 4000,
    "contractual": 27948,
    "simpler": 16325,
    "burst": 6532,
    "##than": 21604,
    "##dham": 17661,
    "jc": 29175,
    "elsewhere": 6974,
    "lightning": 7407,
    "##emi": 23238,
    "trader": 17667,
    "##cha": 7507,
    "##zzling": 20838,
    "##version": 27774,
    "policy": 3343,
    "style": 2806,
    "##8": 2620,
    "shipped": 12057,
    "premier": 4239,
    "hysterical": 25614,
    "##nem": 25832,
    "splashed": 22055,
    "crushing": 14527,
    "complement": 13711,
    "erwin": 22209,
    "iqbal": 28111,
    "organized": 4114,
    "##chs": 18069,
    "spur": 12996,
    "acknowledging": 21894,
    "##imate": 21499,
    "##iot": 25185,
    "assigns": 24022,
    "##ata": 6790,
    "aren": 4995,
    "complicated": 8552,
    "critics": 4401,
    "compliance": 12646,
    "merger": 7660,
    "##sz": 17112,
    "closet": 9346,
    "islamist": 27256,
    "foster": 6469,
    "controllers": 21257,
    "constraint": 27142,
    "##\u91ce": 30489,
    "##ute": 10421,
    "favorable": 11119,
    "smashwords": 25151,
    "gulp": 26546,
    "207": 19843,
    "##\u30d8": 30247,
    "##\u2218": 30126,
    "cabinets": 20053,
    "denote": 19090,
    "ashford": 26545,
    "consequence": 9509,
    "curry": 15478,
    "eat": 4521,
    "passing": 4458,
    "seat": 2835,
    "intensive": 11806,
    "beers": 18007,
    "herald": 9536,
    "747": 25374,
    "escaping": 13002,
    "pointing": 7302,
    "residue": 21755,
    "##joy": 24793,
    "etched": 20286,
    "alloy": 17564,
    "harden": 28751,
    "recaptured": 23838,
    "recited": 24843,
    "lina": 27022,
    "orphans": 21478,
    "##dl": 19422,
    "chateau": 11874,
    "mainline": 20575,
    "peptide": 25117,
    "summers": 10945,
    "\u592b": 1813,
    "allegiance": 14588,
    "gunnar": 26138,
    "[unused841]": 846,
    "clown": 15912,
    "##hur": 24572,
    "quotes": 16614,
    "airline": 8582,
    "han": 7658,
    "##wark": 24298,
    "hilarious": 26316,
    "mike": 3505,
    "identity": 4767,
    "\u10e0": 1451,
    "##tlement": 24007,
    "rebel": 8443,
    "gardner": 11764,
    "##ffa": 20961,
    "protestant": 8330,
    "butter": 12136,
    "warning": 5432,
    "\u00b0": 1080,
    "potter": 10693,
    "ought": 11276,
    "##not": 17048,
    "distributions": 20611,
    "##rgo": 18581,
    "##rgen": 25892,
    "disability": 11980,
    "shade": 8703,
    "engines": 5209,
    "[unused595]": 600,
    "rochester": 10541,
    "realising": 27504,
    "[unused311]": 316,
    "po": 13433,
    "##rle": 20927,
    "zealand": 3414,
    "##zd": 26494,
    "casket": 25864,
    "##:": 29627,
    "[unused795]": 800,
    "resultant": 28573,
    "\u057d": 1234,
    "pyrenees": 22696,
    "192": 17613,
    "marne": 25823,
    "noted": 3264,
    "proclaimed": 10116,
    "tanzania": 11959,
    "##olio": 29401,
    "chewed": 18362,
    "mclean": 17602,
    "##ando": 28574,
    "##ifying": 11787,
    "robbers": 28019,
    "deacon": 14845,
    "capturing": 11847,
    "1954": 4051,
    "ecosystems": 20440,
    "oclc": 12258,
    "barrel": 8460,
    "61": 6079,
    "##clusive": 23633,
    "hurling": 10839,
    "joined": 2587,
    "##minster": 24431,
    "\u0565": 1223,
    "##\u2098": 30096,
    "##ocytes": 28788,
    "diet": 8738,
    "topping": 22286,
    "assassinated": 16370,
    "packs": 15173,
    "fixture": 15083,
    "secure": 5851,
    "haired": 10681,
    "ashamed": 14984,
    "electric": 3751,
    "caracas": 21675,
    "121": 12606,
    "duran": 22959,
    "[unused978]": 983,
    "critical": 4187,
    "designations": 26672,
    "glad": 5580,
    "530": 23523,
    "mcc": 23680,
    "kelley": 19543,
    "##\u02be": 29713,
    "strategy": 5656,
    "responsibilities": 10198,
    "##oum": 24778,
    "peters": 12420,
    "serpent": 16517,
    "##hom": 23393,
    "1911": 5184,
    "ascending": 22316,
    "monopoly": 15404,
    "nominally": 24207,
    "preaching": 17979,
    "##inus": 13429,
    "exiles": 27127,
    "buccaneers": 21629,
    "groundbreaking": 23222,
    "skirts": 18184,
    "\u21d2": 1591,
    "rabbits": 20403,
    "##nian": 11148,
    "alerted": 22333,
    "challenge": 4119,
    "clearance": 14860,
    "[unused415]": 420,
    "285": 21777,
    "[unused583]": 588,
    "macquarie": 23903,
    "teacher": 3836,
    "pm": 7610,
    "411": 27517,
    "\u00b9": 1088,
    "detective": 6317,
    "##yla": 23943,
    "pike": 12694,
    "\u03be": 1168,
    "##cut": 12690,
    "##\u30af": 30228,
    "gentry": 20262,
    "weak": 5410,
    "secretariat": 15128,
    "##\u30c3": 30237,
    "appalled": 29279,
    "##otic": 20214,
    "correspond": 17254,
    "aquino": 24183,
    "mound": 12048,
    "shielded": 25474,
    "forum": 7057,
    "pit": 6770,
    "\u539f": 1787,
    "champs": 29008,
    "palaces": 22763,
    "takeover": 15336,
    "tajikistan": 23538,
    "##kit": 23615,
    "[unused534]": 539,
    "owning": 19273,
    "taxes": 7773,
    "strokes": 13692,
    "palette": 27396,
    "\u201e": 1525,
    "odds": 10238,
    "##inated": 15833,
    "listeners": 13810,
    "crowns": 24364,
    "cooked": 12984,
    "servant": 7947,
    "brenda": 15507,
    "\u30df": 1724,
    "ella": 11713,
    "##anies": 28064,
    "startling": 19828,
    "flickered": 15999,
    "rounded": 8352,
    "lets": 11082,
    "freely": 10350,
    "carvings": 22838,
    "distinctive": 8200,
    "deck": 5877,
    "documents": 5491,
    "partially": 6822,
    "microscopic": 26396,
    "reliability": 15258,
    "dinosaurs": 18148,
    "equality": 9945,
    "constituents": 24355,
    "deserve": 10107,
    "\u0449": 1204,
    "carbonate": 26427,
    "tucson": 17478,
    "bid": 7226,
    "terry": 6609,
    "thailand": 6504,
    "jiang": 20613,
    "simplicity": 17839,
    "keynes": 22152,
    "blessings": 24618,
    "##tery": 20902,
    "brethren": 17937,
    "oil": 3514,
    "mercenaries": 19331,
    "sway": 17812,
    "draws": 9891,
    "weep": 27874,
    "##\u00ba": 29662,
    "corrupted": 27279,
    "programme": 4746,
    "##uary": 24384,
    "comb": 22863,
    "##therapy": 20900,
    "numb": 15903,
    "[unused787]": 792,
    "liberia": 18039,
    "##\u2011": 30049,
    "dollar": 7922,
    "sunday": 4465,
    "##esthesia": 25344,
    "promises": 10659,
    "290": 17222,
    "##\u307e": 30203,
    "stuffed": 11812,
    "objected": 15959,
    "zip": 14101,
    "##rard": 25561,
    "valid": 9398,
    "##13": 17134,
    "deter": 28283,
    "excerpts": 24962,
    "ds": 16233,
    "hosts": 6184,
    "##nington": 23155,
    "naga": 26539,
    "\u043a": 1189,
    "firth": 25138,
    "art": 2396,
    "opposite": 4500,
    "augmented": 19335,
    "##lam": 10278,
    "confirmed": 4484,
    "privilege": 14293,
    "\u0e25": 1418,
    "##nti": 16778,
    "dense": 9742,
    "[unused88]": 89,
    "assessment": 7667,
    "reyes": 12576,
    "v6": 25275,
    "##\u0274": 29690,
    "##\u2264": 30135,
    "chalk": 16833,
    "olympus": 26742,
    "##stock": 14758,
    "slick": 13554,
    "##kan": 9126,
    "disabilities": 13597,
    "simplified": 11038,
    "cruiser": 10844,
    "##ganj": 22738,
    "len": 18798,
    "norton": 10770,
    "alcoholic": 14813,
    "japanese": 2887,
    "portrays": 17509,
    "division": 2407,
    "cabaret": 19685,
    "are": 2024,
    "##\u2090": 30089,
    "stairway": 21952,
    "\u6b63": 1888,
    "amazement": 21606,
    "zhao": 15634,
    "edna": 21051,
    "##ions": 8496,
    "##rh": 25032,
    "booths": 27612,
    "[unused106]": 111,
    "puppet": 13997,
    "##han": 4819,
    "##uka": 15750,
    "##abe": 16336,
    "burns": 7641,
    "reflects": 11138,
    "nc": 13316,
    "trolls": 27980,
    "algeria": 11337,
    "portsmouth": 10913,
    "strands": 14119,
    "supermarkets": 26676,
    "##trix": 29184,
    "bud": 13007,
    "##bra": 10024,
    "##iling": 16281,
    "cushion": 22936,
    "frequencies": 13139,
    "##\u2074": 30073,
    "footprint": 24319,
    "huts": 23326,
    "mutant": 15527,
    "fixing": 15887,
    "mc": 11338,
    "careless": 23358,
    "##ij": 28418,
    "harrisburg": 24569,
    "improvements": 8377,
    "syrup": 23353,
    "invite": 13260,
    "##rous": 13288,
    "credited": 5827,
    "medals": 6665,
    "makes": 3084,
    "justices": 19867,
    "reacted": 14831,
    "##\u0e27": 29955,
    "##oping": 17686,
    "burnett": 13829,
    "menu": 12183,
    "relocated": 7448,
    "##urst": 29402,
    "demise": 13614,
    "##\u30a8": 30224,
    "updated": 7172,
    "1884": 6988,
    "recognizing": 14622,
    "skull": 7412,
    "##scia": 27210,
    "nazis": 13157,
    "##bad": 9024,
    "nano": 28991,
    "unconscious": 9787,
    "howell": 18473,
    "consensus": 10465,
    "##feit": 21156,
    "antennas": 26315,
    "aspiring": 22344,
    "minded": 13128,
    "hollow": 8892,
    "accelerator": 23468,
    "atoms": 13353,
    "safe": 3647,
    "taped": 19374,
    "louis": 3434,
    "saying": 3038,
    "swallowing": 18468,
    "tres": 24403,
    "tent": 9311,
    "brianna": 25558,
    "oxfordshire": 20124,
    "underwater": 11564,
    "##reus": 23446,
    "sensed": 10596,
    "##del": 9247,
    "fumbled": 20054,
    "donor": 15009,
    "332": 29327,
    "politics": 4331,
    "armed": 4273,
    "designated": 4351,
    "\u1019": 1437,
    "peaked": 6601,
    "enthusiasts": 20305,
    "##bn": 24700,
    "masculine": 14818,
    "friendly": 5379,
    "##rated": 9250,
    "hazel": 14015,
    "attributes": 12332,
    "kite": 20497,
    "concurrency": 24154,
    "edge": 3341,
    "piers": 16067,
    "##\u4eee": 30287,
    "sniffed": 18013,
    "[unused585]": 590,
    "bowler": 14999,
    "24": 2484,
    "alain": 15654,
    "\u9547": 1966,
    "[unused597]": 602,
    "egyptians": 23437,
    "wishing": 10261,
    "[unused656]": 661,
    "laced": 17958,
    "##gation": 12540,
    "dye": 18554,
    "##ek": 5937,
    "tales": 7122,
    "amp": 23713,
    "equipment": 3941,
    "##nell": 9091,
    "close": 2485,
    "##nr": 16118,
    "convection": 23849,
    "wake": 5256,
    "##ari": 8486,
    "carrie": 13223,
    "##guchi": 16918,
    "legend": 5722,
    "##\u0e19": 29949,
    "emmy": 10096,
    "evil": 4763,
    "fundamental": 8050,
    "piazza": 22463,
    "refers": 5218,
    "respondents": 25094,
    "westminster": 9434,
    "principal": 4054,
    "hartford": 13381,
    "##zog": 28505,
    "sera": 26358,
    "warship": 21905,
    "##hampton": 21946,
    "##genic": 16505,
    "##osomal": 27642,
    "psycho": 18224,
    "reflecting": 10842,
    "evergreen": 16899,
    "##stown": 13731,
    "##ility": 15148,
    "hugs": 24459,
    "jakob": 19108,
    "##lase": 25002,
    "ba": 8670,
    "strangely": 13939,
    "\u6cbb": 1900,
    "ara": 19027,
    "boxes": 8378,
    "trying": 2667,
    "exceeding": 17003,
    "seductive": 23182,
    "vector": 9207,
    "[unused107]": 112,
    "reintroduced": 28263,
    "\u2071": 1537,
    "##vil": 14762,
    "expand": 7818,
    "cinnamon": 21229,
    "vans": 21994,
    "##rber": 20473,
    "feet": 2519,
    "##americana": 27026,
    "medial": 23828,
    "monthly": 7058,
    "steal": 8954,
    "ambrose": 15675,
    "hitter": 18694,
    "units": 3197,
    "diagrams": 26309,
    "latin": 3763,
    "locations": 5269,
    "\u301c": 1645,
    "##eller": 24038,
    "citations": 22921,
    "krakow": 14576,
    "exchanging": 25620,
    "[unused743]": 748,
    "ill": 5665,
    "appear": 3711,
    "heated": 9685,
    "legged": 15817,
    "##iah": 12215,
    "hires": 28208,
    "shares": 6661,
    "miniature": 12973,
    "34th": 20460,
    "##\u05ea": 29813,
    "mongolia": 13906,
    "##omics": 25524,
    "altered": 8776,
    "baldwin": 10970,
    "desperation": 15561,
    "chatting": 22331,
    "kowalski": 28874,
    "mclaren": 18590,
    "foreign": 3097,
    "visibility": 16476,
    "gao": 17377,
    "prevailing": 19283,
    "[unused110]": 115,
    "averaged": 11398,
    "manned": 15371,
    "proprietary": 16350,
    "development": 2458,
    "opus": 16895,
    "putnam": 20230,
    "hosted": 4354,
    "null": 19701,
    "conservative": 4603,
    "slab": 17584,
    "quay": 21048,
    "tracy": 10555,
    "[unused483]": 488,
    "[unused586]": 591,
    "47": 4700,
    "converse": 23705,
    "##zam": 20722,
    "\u03b4": 1158,
    "dwellings": 16707,
    "nikita": 29106,
    "tended": 11121,
    "attends": 23933,
    "##tra": 6494,
    "##cl": 20464,
    "halves": 23672,
    "norm": 13373,
    "tricked": 24929,
    "geo": 20248,
    "[unused59]": 60,
    "lucifer": 24184,
    "coco": 25033,
    "badge": 10780,
    "farm": 3888,
    "vessel": 6258,
    "##geny": 17487,
    "##\u5cf6": 30359,
    "tobacco": 9098,
    "grades": 7022,
    "rescues": 26001,
    "\u0442": 1197,
    "##\"": 29613,
    "rotational": 25254,
    "##ffed": 15388,
    "cohen": 9946,
    "children": 2336,
    "##rts": 21217,
    "##anne": 20147,
    "denied": 6380,
    "goa": 15244,
    "1975": 3339,
    "fling": 27655,
    "mega": 13164,
    "mm": 3461,
    "##25": 17788,
    "redemption": 18434,
    "prevention": 9740,
    "wise": 7968,
    "##ney": 5420,
    "mab": 26661,
    "descriptive": 22726,
    "##ancy": 11656,
    "loyalists": 26590,
    "giuseppe": 12574,
    "amtrak": 20208,
    "meteorological": 20557,
    "stanley": 6156,
    "grafton": 28680,
    "##ner": 3678,
    "soldier": 5268,
    "##if": 10128,
    "union": 2586,
    "##ian": 2937,
    "ahl": 18347,
    "less": 2625,
    "##\u4e3b": 30273,
    "mcintyre": 24564,
    "disconnected": 23657,
    "##col": 25778,
    "##filtration": 28674,
    "marguerite": 15334,
    "psychedelic": 18147,
    "[unused351]": 356,
    "chuckle": 15375,
    "universities": 5534,
    "nancy": 7912,
    "\u0111": 1102,
    "move": 2693,
    "christmas": 4234,
    "\u09b9": 1377,
    "crawling": 15927,
    "##rb": 15185,
    "brazilian": 6142,
    "mechanism": 7337,
    "##hee": 21030,
    "reputation": 5891,
    "georges": 10870,
    "ptolemy": 23517,
    "abdullah": 14093,
    "sustain": 15770,
    "yankee": 17652,
    "mechanic": 15893,
    "##fication": 10803,
    "ky": 18712,
    "newspaper": 3780,
    "seizure": 18634,
    "[unused251]": 256,
    "##llary": 24435,
    "teaching": 4252,
    "topics": 7832,
    "ssr": 20896,
    "chores": 27091,
    "jurisdictions": 17370,
    "rotor": 18929,
    "caden": 23600,
    "magnesium": 24983,
    "mondays": 28401,
    "\u045a": 1216,
    "bobbed": 29579,
    "josh": 6498,
    "fantastic": 10392,
    "knock": 7324,
    "sinclair": 11881,
    "dialects": 11976,
    "goodwill": 22875,
    "gradually": 6360,
    "humble": 15716,
    "tin": 9543,
    "initiation": 17890,
    "lowlands": 26411,
    "ethnicity": 18240,
    "instead": 2612,
    "##port": 6442,
    "cherry": 9115,
    "disappointing": 15640,
    "teller": 21322,
    "[unused802]": 807,
    "\u624b": 1858,
    "competence": 22219,
    "##\u201e": 30060,
    "[unused260]": 265,
    "out": 2041,
    "prize": 3396,
    "semifinal": 16797,
    "intersections": 26540,
    "unification": 16905,
    "tna": 20108,
    "que": 10861,
    "commissioned": 4837,
    "##ston": 7106,
    "bhutan": 18768,
    "humphrey": 15462,
    "dustin": 24337,
    "slit": 18036,
    "verified": 20119,
    "rendezvous": 20558,
    "##\u0bb5": 29930,
    "atoll": 22292,
    "vaccines": 28896,
    "##ctuated": 25638,
    "##opus": 24676,
    "##antly": 15706,
    "epilogue": 24297,
    "ensuring": 12725,
    "proliferation": 20250,
    "##ivate": 21466,
    "crabs": 26076,
    "##\u2202": 30120,
    "rufus": 18316,
    "inward": 20546,
    "unitarian": 25477,
    "compensated": 29258,
    "odor": 19255,
    "penguin": 13987,
    "xii": 14371,
    "gordon": 5146,
    "##hear": 26560,
    "clench": 26753,
    "into": 2046,
    "##iec": 23783,
    "herbs": 17561,
    "wee": 16776,
    "heart": 2540,
    "chairperson": 19072,
    "vocal": 5554,
    "extraordinary": 9313,
    "maple": 11035,
    "styx": 21856,
    "##ees": 10285,
    "##oat": 16503,
    "coastline": 15458,
    "pipeline": 13117,
    "drastic": 23956,
    "baroness": 21479,
    "lists": 7201,
    "socialists": 21633,
    "\u1102": 1456,
    "##vot": 22994,
    "##vino": 26531,
    "gentle": 7132,
    "inspiring": 18988,
    "lawyer": 5160,
    "##olar": 19478,
    "ter": 28774,
    "census": 2883,
    "ulrich": 19619,
    "adverse": 15316,
    "cancers": 25409,
    "\u5317": 1781,
    "wwii": 25755,
    "deterioration": 26118,
    "doncaster": 18895,
    "itv": 11858,
    "##cas": 15671,
    "confederation": 11078,
    "gunmen": 28932,
    "taunting": 29442,
    "burkina": 23089,
    "welding": 23604,
    "168": 16923,
    "realizing": 9301,
    "swirling": 16499,
    "##pkins": 29531,
    "peas": 26072,
    "plus": 4606,
    "proportions": 19173,
    "residential": 5647,
    "resting": 8345,
    "\u2ea9": 1632,
    "chairman": 3472,
    "gaa": 19930,
    "##kian": 28545,
    "minimize": 18478,
    "scented": 25738,
    "##eti": 20624,
    "leon": 6506,
    "##\u0576": 29778,
    "jia": 25871,
    "i": 1045,
    "\u9053": 1957,
    "intercourse": 23198,
    "sentencing": 23280,
    "affair": 6771,
    "basalt": 26343,
    "\u0e19": 1413,
    "##tled": 14782,
    "songwriters": 20602,
    "##evic": 17726,
    "##sau": 23823,
    "u": 1057,
    "jem": 24193,
    "pushes": 13956,
    "reveals": 7657,
    "##gut": 27920,
    "##nction": 27989,
    "##ough": 10593,
    "##national": 25434,
    "poster": 13082,
    "##nds": 18376,
    "narrated": 17356,
    "resolution": 5813,
    "proponents": 20401,
    "##sho": 22231,
    "mount": 4057,
    "lenin": 17497,
    "##vard": 25911,
    "crashes": 19119,
    "forested": 15205,
    "countess": 11716,
    "divided": 4055,
    "magistrate": 14351,
    "ceded": 19705,
    "[unused222]": 227,
    "anonymous": 10812,
    "kilograms": 18857,
    "ymca": 26866,
    "flats": 14201,
    "vu": 24728,
    "254": 22234,
    "really": 2428,
    "not": 2025,
    "passengers": 5467,
    "edges": 7926,
    "compose": 17202,
    "##yes": 23147,
    "sliding": 8058,
    "irrational": 23179,
    "copies": 4809,
    "casablanca": 24592,
    "continuation": 13633,
    "appointments": 14651,
    "word": 2773,
    "\u826f": 1938,
    "either": 2593,
    "##inton": 27028,
    "meredith": 10635,
    "brighter": 16176,
    "reputed": 22353,
    "dale": 8512,
    "jung": 11810,
    "nrhp": 22424,
    "##pers": 7347,
    "dramatically": 12099,
    "blunt": 14969,
    "##ishly": 19983,
    "gate": 4796,
    "\u09b6": 1374,
    "robbins": 18091,
    "##\u0279": 29691,
    "barre": 23189,
    "janet": 9965,
    "metaphor": 19240,
    "visible": 5710,
    "wanda": 20848,
    "ur": 24471,
    "being": 2108,
    "lahore": 15036,
    "stood": 2768,
    "wr": 23277,
    "quarrel": 26260,
    "415": 24690,
    "sheep": 8351,
    "##\u0995": 29889,
    "butch": 17520,
    "lithium": 22157,
    "authors": 6048,
    "timely": 23259,
    "cup": 2452,
    "georgian": 9166,
    "suffer": 9015,
    "chaplain": 14011,
    "##tail": 14162,
    "agony": 12812,
    "chloride": 19057,
    "##\u208e": 30088,
    "##mounted": 27632,
    "julien": 19290,
    "disgusting": 19424,
    "plumage": 28764,
    "\u3061": 1662,
    "seth": 6662,
    "flanking": 24958,
    "##hwa": 18663,
    "infectious": 16514,
    "[unused103]": 108,
    "zoom": 24095,
    "restricting": 26996,
    "##emia": 17577,
    "1725": 25651,
    "heal": 11005,
    "##ses": 8583,
    "##going": 26966,
    "rations": 29559,
    "declaring": 13752,
    "polgara": 27041,
    "abyss": 22159,
    "fulfill": 13883,
    "tang": 9745,
    "1716": 28204,
    "separates": 18600,
    "evicted": 25777,
    "trainee": 26758,
    "corbin": 24003,
    "victorious": 13846,
    "greene": 11006,
    "##rise": 29346,
    "\u00ba": 1089,
    "##imated": 20592,
    "believes": 7164,
    "##wara": 11872,
    "colonies": 8355,
    "visit": 3942,
    "macarthur": 17719,
    "##cola": 26289,
    "##vid": 17258,
    "april": 2258,
    "fronts": 21430,
    "tampa": 9925,
    "clearing": 8430,
    "##ze": 4371,
    "administrators": 15631,
    "geometridae": 24687,
    "##jas": 17386,
    "##cased": 28969,
    "reds": 12281,
    "[unused671]": 676,
    "##achal": 24409,
    "transmissions": 21670,
    "console": 10122,
    "##sha": 7377,
    "upset": 6314,
    "\u2665": 1625,
    "context": 6123,
    "patient": 5776,
    "midlands": 13256,
    "parana": 28383,
    "tolerant": 23691,
    "[unused546]": 551,
    "[unused974]": 979,
    "[unused992]": 997,
    "mortimer": 17416,
    "##avi": 18891,
    "constable": 12294,
    "myanmar": 12620,
    "1708": 27337,
    "duchess": 11017,
    "aachen": 29093,
    "excerpt": 28142,
    "showers": 23442,
    "orphanage": 18504,
    "plymouth": 10221,
    "frowns": 29303,
    "organ": 5812,
    "157": 17403,
    "1889": 6478,
    "gotham": 22814,
    "\u8033": 1937,
    "office": 2436,
    "##uli": 15859,
    "##rp": 14536,
    "##tated": 16238,
    "forefront": 22870,
    "raleigh": 15842,
    "##\u3008": 30163,
    "kenyan": 20428,
    "poisoning": 16149,
    "interfered": 28976,
    "##vet": 19510,
    "another": 2178,
    "esther": 14631,
    "reconstruction": 8735,
    "fleetwood": 23866,
    "magistrates": 23007,
    "barrio": 25676,
    "andre": 7213,
    "##iko": 12676,
    "carbon": 6351,
    "tacoma": 22954,
    "referee": 5330,
    "##rath": 27362,
    "covered": 3139,
    "megan": 12756,
    "performance": 2836,
    "##lita": 27606,
    "acids": 12737,
    "joint": 4101,
    "manifested": 24906,
    "bribery": 27748,
    "brackets": 19719,
    "kan": 22827,
    "nut": 17490,
    "backed": 6153,
    "aviation": 5734,
    "competitors": 10159,
    "veteran": 8003,
    "leisure": 12257,
    "arrested": 4727,
    "##zumi": 28114,
    "##cz": 27966,
    "kelly": 5163,
    "##rdy": 17460,
    "[unused341]": 346,
    "marine": 3884,
    "match": 2674,
    "slovenian": 16583,
    "##lini": 22153,
    "##sp": 13102,
    "toes": 10393,
    "beside": 3875,
    "deception": 17575,
    "##\u540d": 30321,
    "captain": 2952,
    "##ald": 19058,
    "##rini": 22612,
    "kylie": 9008,
    "disciplined": 28675,
    "##away": 9497,
    "[unused609]": 614,
    "soyuz": 29412,
    "idaho": 9795,
    "rob": 6487,
    "koppen": 20139,
    "perch": 21836,
    "quilt": 27565,
    "##trust": 24669,
    "economists": 22171,
    "words": 2616,
    "temperatures": 7715,
    "williams": 3766,
    "##gan": 5289,
    "contradiction": 26917,
    "shores": 13312,
    "ipa": 24531,
    "respects": 17475,
    "ambassadors": 20986,
    "transport": 3665,
    "aviv": 12724,
    "#": 1001,
    "##vant": 18941,
    "archduke": 27463,
    "nagar": 16395,
    "##washed": 27283,
    "calculated": 10174,
    "attorneys": 16214,
    "##\u2096": 30094,
    "##bell": 17327,
    "premises": 10345,
    "##ssion": 28231,
    "browser": 16602,
    "qur": 23183,
    "ussr": 10331,
    "animator": 25132,
    "\u057e": 1235,
    "\u0641": 1291,
    "##igny": 26978,
    "blitz": 22312,
    "albanians": 25267,
    "example": 2742,
    "russo": 17023,
    "watkins": 17055,
    "##tish": 24788,
    "doctrine": 8998,
    "fabrics": 25123,
    "examinations": 14912,
    "##vers": 14028,
    "till": 6229,
    "viewer": 13972,
    "rna": 12987,
    "advantage": 5056,
    "signed": 2772,
    "marked": 4417,
    "influences": 8092,
    "watt": 15231,
    "finance": 5446,
    "resented": 27188,
    "see": 2156,
    "##om": 5358,
    "163": 17867,
    "theatres": 13166,
    "\u5bfa": 1827,
    "organize": 10939,
    "erection": 13760,
    "seeds": 8079,
    "streaks": 21295,
    "retired": 3394,
    "##\u00a1": 29644,
    "angrily": 14136,
    "mammoth": 23714,
    "sergio": 13983,
    "##avs": 29553,
    "melissa": 9606,
    "periodic": 15861,
    "1875": 7466,
    "pirates": 8350,
    "prohibit": 23469,
    "tape": 6823,
    "violins": 25877,
    "##wu": 16050,
    "suriname": 25050,
    "flare": 17748,
    "longer": 2936,
    "[unused205]": 210,
    "pga": 14198,
    "##inations": 22045,
    "renew": 20687,
    "forks": 19896,
    "##\u0633": 29824,
    "[unused993]": 998,
    "figurative": 29407,
    "aloud": 12575,
    "gall": 26033,
    "theaters": 12370,
    "entitled": 4709,
    "wil": 19863,
    "cw": 19296,
    "systematic": 11778,
    "##\u5fa1": 30373,
    "uniquely": 20640,
    "##eli": 20806,
    "##isms": 22556,
    "relinquished": 26566,
    "1887": 6837,
    "theodor": 21448,
    "27th": 15045,
    "list": 2862,
    "pumped": 16486,
    "once": 2320,
    "sweeney": 21178,
    "downstream": 13248,
    "marvel": 8348,
    "began": 2211,
    "bilingual": 17636,
    "1654": 27445,
    "administering": 28965,
    "characterised": 17253,
    "etudes": 25041,
    "decision": 3247,
    "southern": 2670,
    "##sc": 11020,
    "study": 2817,
    "castillo": 19371,
    "empirical": 17537,
    "\u5343": 1784,
    "gps": 14658,
    "sonic": 12728,
    "##mare": 24376,
    "38th": 22051,
    "ashton": 13772,
    "toro": 23790,
    "pertaining": 20246,
    "glimpse": 12185,
    "##rish": 18774,
    "portable": 12109,
    "\u026a": 1119,
    "curt": 20099,
    "leapt": 13920,
    "rutland": 27780,
    "representations": 15066,
    "translators": 28396,
    "##asurable": 28329,
    "##ri": 3089,
    "recovery": 7233,
    "##udge": 15979,
    "prefect": 19402,
    "newt": 25597,
    "##rona": 26788,
    "kassel": 27884,
    "##ary": 5649,
    "1907": 5528,
    "mari": 16266,
    "shield": 6099,
    "slides": 14816,
    "creaked": 28068,
    "warden": 13745,
    "jazz": 4166,
    "banking": 8169,
    "unbroken": 29505,
    "king": 2332,
    "##rol": 13153,
    "thicker": 19638,
    "realize": 5382,
    "760": 24643,
    "grabs": 13273,
    "awakening": 16936,
    "##mos": 15530,
    "mausoleum": 19049,
    "##\u3092": 30216,
    "rust": 18399,
    "walton": 14290,
    "fries": 22201,
    "pediatric": 23614,
    "inter": 6970,
    "luke": 5355,
    "##ault": 23505,
    "hardness": 23608,
    "respiratory": 16464,
    "vamps": 24064,
    "idea": 2801,
    "merry": 12831,
    "vain": 15784,
    "hiring": 14763,
    "promotes": 14067,
    "cleaning": 9344,
    "romani": 23982,
    "tides": 22487,
    "nonsense": 14652,
    "washing": 12699,
    "window": 3332,
    "yellow": 3756,
    "stalking": 20070,
    "stuff": 4933,
    "##\u10d5": 29979,
    "practitioner": 18742,
    "\u0e15": 1411,
    "\u1110": 1467,
    "romeo": 12390,
    "louvre": 25110,
    "##\u0574": 29776,
    "past": 2627,
    "soldiers": 3548,
    "##\u09b6": 29910,
    "dex": 20647,
    "36": 4029,
    "##space": 23058,
    "##\u2208": 30124,
    "##ales": 23266,
    "2000": 2456,
    "[unused902]": 907,
    "medication": 14667,
    "##bbon": 27684,
    "heightened": 21106,
    "amelia": 11556,
    "hacking": 23707,
    "##idge": 13623,
    "##dley": 14232,
    "nec": 26785,
    "afterward": 9707,
    "[unused380]": 385,
    "\u5802": 1805,
    "disciples": 17102,
    "[unused897]": 902,
    "##cius": 25393,
    "cain": 11557,
    "greenfield": 26713,
    "##any": 19092,
    "sabotage": 20223,
    "kolkata": 13522,
    "agenda": 11376,
    "betrayed": 12056,
    "bastion": 26829,
    "bay": 3016,
    "##flight": 28968,
    "paragraph": 20423,
    "##eran": 23169,
    "dietrich": 22567,
    "ames": 19900,
    "kingdom": 2983,
    "truths": 23019,
    "sociology": 11507,
    "woodlands": 19268,
    "[unused46]": 47,
    "estranged": 24211,
    "306": 24622,
    "grandfather": 5615,
    "[unused172]": 177,
    "bottoms": 24196,
    "blues": 5132,
    "##ast": 14083,
    "##ici": 28775,
    "calderon": 28129,
    "truman": 15237,
    "skipping": 25978,
    "serene": 25388,
    "##ie": 2666,
    "daemon": 12828,
    "[unused20]": 21,
    "improving": 9229,
    "ju": 18414,
    "mel": 11463,
    "##lyn": 9644,
    "mendoza": 18021,
    "wounds": 8710,
    "francoise": 28979,
    "138": 15028,
    "##boys": 24916,
    "exits": 16639,
    "ricky": 11184,
    "racer": 14878,
    "pomeranian": 17717,
    "rosy": 26851,
    "\u2015": 1518,
    "read": 3191,
    "solely": 9578,
    "blog": 9927,
    "sleeps": 25126,
    "durban": 25040,
    "##rogate": 21799,
    "players": 2867,
    "swiss": 5364,
    "submarine": 6982,
    "image": 3746,
    "neither": 4445,
    "communicate": 10639,
    "majestic": 22337,
    "tension": 6980,
    "pavel": 18635,
    "sadie": 21330,
    "criticised": 10648,
    "specimen": 11375,
    "georgina": 27358,
    "[unused767]": 772,
    "occupies": 14133,
    "pokemon": 20421,
    "mechanical": 6228,
    "wisdom": 9866,
    "integer": 16109,
    "ferreira": 26135,
    "inverted": 20037,
    "##row": 10524,
    "[unused730]": 735,
    "##\u0b9a": 29919,
    "ease": 7496,
    "illuminating": 27816,
    "swans": 26699,
    "##break": 23890,
    "\u10db": 1448,
    "barefoot": 22985,
    "bison": 22285,
    "parole": 17393,
    "terminates": 28790,
    "neoclassical": 22657,
    "##ment": 3672,
    "##tani": 17681,
    "yanking": 25716,
    "[SEP]": 102,
    "tired": 5458,
    "[unused298]": 303,
    "\u77f3": 1922,
    "invoked": 24959,
    "cheng": 15898,
    "smug": 20673,
    "skinner": 17451,
    "\u9762": 1976,
    "##isan": 29196,
    "1780": 15051,
    "capitals": 15433,
    "dmitri": 28316,
    "performs": 10438,
    "serra": 22737,
    "[unused931]": 936,
    "incredible": 9788,
    "smuggling": 19535,
    "demo": 9703,
    "spotting": 27963,
    "viewing": 10523,
    "##gf": 25708,
    "balls": 7395,
    "allergic": 27395,
    "casting": 9179,
    "lao": 18805,
    "replaced": 2999,
    "##ausen": 25701,
    "eventual": 9523,
    "##\u6c5f": 30423,
    "afterlife": 25115,
    "[unused85]": 86,
    "##itic": 18291,
    "enacted": 11955,
    "hilt": 21184,
    "fix": 8081,
    "sexually": 12581,
    "pas": 14674,
    "##scu": 28817,
    "##\u0987": 29885,
    "coat": 5435,
    "##oran": 18842,
    "affirmative": 27352,
    "particularly": 3391,
    "[unused944]": 949,
    "##\u0e40": 29959,
    "warrant": 10943,
    "anthem": 11971,
    "won": 2180,
    "\u3081": 1680,
    "disciplinary": 17972,
    "mod": 16913,
    "wildly": 13544,
    "coincided": 18616,
    "126": 14010,
    "herd": 14906,
    "knoxville": 20021,
    "##kaya": 20718,
    "beatles": 11555,
    "avenues": 20859,
    "trends": 12878,
    "serve": 3710,
    "##bber": 29325,
    "hudson": 6842,
    "kitty": 14433,
    "##hner": 28989,
    "contrasting": 22133,
    "##me": 4168,
    "pharmacy": 13882,
    "95": 5345,
    "metz": 24424,
    "escorts": 24877,
    "\u0939": 1339,
    "##ience": 13684,
    "[unused675]": 680,
    "koreans": 24651,
    "artistic": 6018,
    "allies": 6956,
    "greenland": 16128,
    "battalions": 10157,
    "minions": 28071,
    "##the": 10760,
    "mama": 9588,
    "considerably": 9839,
    "##logists": 18738,
    "informed": 6727,
    "reacts": 27325,
    "##dorff": 26559,
    "videos": 6876,
    "goblin": 22639,
    "rubs": 28860,
    "seymour": 13254,
    "success": 3112,
    "##urai": 24804,
    "underwear": 14236,
    "applicant": 23761,
    "bum": 26352,
    "equatorial": 21333,
    "receives": 8267,
    "removed": 3718,
    "ventured": 20510,
    "grows": 7502,
    "##sion": 10992,
    "z": 1062,
    "##aux": 13754,
    "##ect": 22471,
    "cedric": 26170,
    "icc": 16461,
    "growling": 22413,
    "inlet": 15824,
    "oakley": 28876,
    "surroundings": 11301,
    "canteen": 26449,
    "afghan": 12632,
    "chilean": 12091,
    "offshore": 12195,
    "faces": 5344,
    "cassie": 8869,
    "dyed": 28432,
    "##meric": 25531,
    "risked": 22374,
    "spectra": 29237,
    "sorority": 27600,
    "delicious": 12090,
    "restroom": 28249,
    "princeton": 9173,
    "##ging": 4726,
    "##\u09b9": 29913,
    "labrador": 18604,
    "tripped": 21129,
    "plans": 3488,
    "\u5cf6": 1833,
    "barons": 21487,
    "acute": 11325,
    "##house": 4580,
    "1948": 3882,
    "harmed": 25596,
    "outdated": 25963,
    "##\u0e15": 29947,
    "\u0906": 1312,
    "##\u65b9": 30389,
    "preached": 21491,
    "##\u222a": 30132,
    "drains": 18916,
    "tory": 17117,
    "eating": 5983,
    "rodeo": 18936,
    "activist": 7423,
    "obtained": 4663,
    "panels": 9320,
    "friar": 25287,
    "domino": 23968,
    "##systems": 29390,
    "blackish": 22032,
    "hyun": 21108,
    "labs": 13625,
    "\u300f": 1644,
    "price": 3976,
    "need": 2342,
    "frankie": 12784,
    "kiran": 22403,
    "##tr": 16344,
    "what": 2054,
    "clarkson": 18648,
    "hears": 14994,
    "appropriations": 22713,
    "##hide": 26100,
    "sheds": 25999,
    "##actic": 28804,
    "##stream": 21422,
    "johan": 13093,
    "##pate": 17585,
    "##\u03bf\u03c5": 26789,
    "scientists": 6529,
    "1855": 8492,
    "[unused199]": 204,
    "commando": 15054,
    "film": 2143,
    "mcgill": 17919,
    "preserves": 18536,
    "takeoff": 19744,
    "commitment": 8426,
    "##nished": 28357,
    "terminus": 7342,
    "vatican": 12111,
    "wilhelm": 9070,
    "adorable": 23677,
    "pious": 25020,
    "grupo": 26678,
    "##uting": 20807,
    "skeptical": 18386,
    "chesapeake": 20867,
    "##lynn": 27610,
    "##eptive": 22048,
    "classifications": 26739,
    "panthers": 12915,
    "1734": 27367,
    "optimistic": 21931,
    "consecration": 24730,
    "chess": 7433,
    "paved": 12308,
    "43rd": 25747,
    "##sberg": 11711,
    "##\u7fa9": 30462,
    "confidently": 28415,
    "decree": 10037,
    "term": 2744,
    "corrected": 13371,
    "dresses": 14464,
    "mocking": 19545,
    "##tina": 13770,
    "lithuanian": 10333,
    "##ffled": 28579,
    "##ory": 10253,
    "147": 16471,
    "##nty": 29405,
    "christie": 13144,
    "##\u00b5": 29659,
    "indians": 6505,
    "poet": 4802,
    "##ades": 18673,
    "##icz": 18682,
    "lifestyle": 9580,
    "technical": 4087,
    "\u5143": 1769,
    "laden": 14887,
    "gable": 13733,
    "pursed": 21954,
    "hagen": 24047,
    "eccentric": 18080,
    "strengthen": 12919,
    "rescuing": 23659,
    "underway": 14128,
    "beg": 11693,
    "caitlin": 27555,
    "chaotic": 19633,
    "tilted": 9939,
    "raoul": 22063,
    "porn": 22555,
    "2002": 2526,
    "wnba": 25554,
    "kisses": 8537,
    "aiming": 13659,
    "hailey": 21664,
    "malmo": 23643,
    "army": 2390,
    "casino": 9270,
    "electron": 10496,
    "assisted": 7197,
    "prosecuted": 21651,
    "addition": 2804,
    "europa": 12124,
    "terror": 7404,
    "##points": 26521,
    "expressing": 14026,
    "morales": 17103,
    "watson": 7908,
    "signals": 7755,
    "attachment": 14449,
    "firm": 3813,
    "propelled": 15801,
    "thankful": 18836,
    "pause": 8724,
    "unease": 27880,
    "identification": 8720,
    "prior": 3188,
    "choking": 18329,
    "bryn": 19904,
    "##\u0442": 22919,
    "[unused938]": 943,
    "flour": 13724,
    "hum": 14910,
    "forecast": 19939,
    "arrow": 8612,
    "constantly": 7887,
    "\u2122": 1580,
    "[unused276]": 281,
    "##ovo": 16059,
    "dangerously": 20754,
    "dashboard": 24923,
    "##ond": 15422,
    "vial": 28475,
    "##nier": 14862,
    "\u6b62": 1887,
    "extinguished": 27705,
    "1950s": 4856,
    "jakarta": 14426,
    "delgado": 26532,
    "parkway": 12602,
    "electrode": 28688,
    "receptors": 13833,
    "reporters": 12060,
    "auschwitz": 24363,
    "odi": 21045,
    "palatinate": 18990,
    "loren": 28779,
    "kellogg": 26129,
    "burlington": 15552,
    "licence": 11172,
    "richmond": 6713,
    "8th": 5893,
    "wii": 16568,
    "wynn": 25328,
    "hernandez": 13688,
    "philharmonic": 12355,
    "[unused494]": 499,
    "easiest": 25551,
    "050": 28714,
    "1612": 29186,
    "beverages": 21705,
    "232": 20666,
    "##\u05e9": 29812,
    "arithmetic": 20204,
    "dudley": 12648,
    "sardinia": 21594,
    "trillion": 23458,
    "mildly": 19499,
    "##ain": 8113,
    "1620": 24259,
    "readiness": 19822,
    "logged": 26618,
    "sidekick": 29240,
    "\u03b6": 1160,
    "medley": 13863,
    "\u0e2a": 1420,
    "prose": 12388,
    "##@": 29633,
    "buck": 10131,
    "2": 1016,
    "distinguish": 10782,
    "##ded": 5732,
    "natural": 3019,
    "00pm": 27995,
    "cfa": 28125,
    "petitioned": 22527,
    "mont": 18318,
    "bandages": 27993,
    "##ppa": 13944,
    "drenched": 25265,
    "mourning": 16236,
    "volcanic": 10942,
    "morse": 17107,
    "rae": 14786,
    "seoul": 10884,
    "michel": 8709,
    "dating": 5306,
    "vortex": 23463,
    "hz": 22100,
    "peat": 23366,
    "timmy": 27217,
    "1767": 21502,
    "carlisle": 13575,
    "proud": 7098,
    "journals": 9263,
    "pulls": 8005,
    "definition": 6210,
    "hardly": 6684,
    "confessed": 14312,
    "requests": 11186,
    "pearce": 19560,
    "##tham": 22536,
    "delegate": 11849,
    "fifty": 5595,
    "coward": 16592,
    "smash": 15132,
    "plenty": 7564,
    "##ologists": 16886,
    "##ier": 3771,
    "clary": 13145,
    "guessing": 16986,
    "maiden": 10494,
    "rr": 25269,
    "sikhs": 26697,
    "tq": 28816,
    "vernacular": 18485,
    "##\u0924": 29859,
    "stainless": 18676,
    "##tting": 13027,
    "middlesbrough": 21655,
    "balloons": 22163,
    "moral": 7191,
    "##\u5bae": 30350,
    "deutschland": 28668,
    "strait": 11195,
    "##\u03c4": 29734,
    "##ance": 6651,
    "subcontinent": 26125,
    "phylogenetic": 23192,
    "moderate": 8777,
    "muted": 22124,
    "67": 6163,
    "##m": 2213,
    "fragments": 10341,
    "##rds": 17811,
    "[unused443]": 448,
    "leiden": 20329,
    "smoothing": 27045,
    "##rites": 28884,
    "distal": 29333,
    "[unused134]": 139,
    "nw": 22064,
    "fitzgerald": 11864,
    "renovated": 10601,
    "getting": 2893,
    "hole": 4920,
    "[unused934]": 939,
    "##ement": 13665,
    "briefs": 28760,
    "1925": 4849,
    "##print": 16550,
    "imprisoned": 8580,
    "baronetcy": 25071,
    "flashback": 21907,
    "enzo": 26218,
    "moon": 4231,
    "municipal": 4546,
    "fat": 6638,
    "[unused407]": 412,
    "\u5c07": 1828,
    "##tron": 15312,
    "analyze": 17908,
    "ottomans": 17774,
    "canary": 17154,
    "pavilion": 10531,
    "##qa": 19062,
    "##\u0dc0": 29943,
    "hinges": 25484,
    "villiers": 25333,
    "sacrificed": 20268,
    "vegetation": 10072,
    "wheelchair": 13204,
    "hickory": 28158,
    "##abi": 28518,
    "compound": 7328,
    "##agh": 17988,
    "passport": 12293,
    "orton": 25161,
    "so": 2061,
    "thorpe": 20249,
    "slam": 9555,
    "737": 22061,
    "vegas": 7136,
    "wicket": 12937,
    "##phon": 20846,
    "allan": 8926,
    "dade": 27647,
    "juliana": 24157,
    "comfort": 7216,
    "sooner": 10076,
    "unemployment": 12163,
    "murders": 9916,
    "##\u099c": 29894,
    "selfish": 14337,
    "anglican": 9437,
    "unlock": 19829,
    "entrance": 4211,
    "##he": 5369,
    "##por": 17822,
    "mozart": 13177,
    "##quitable": 28298,
    "gaped": 23832,
    "veto": 22102,
    "##\u03c6": 29736,
    "clans": 16411,
    "dail": 26181,
    "enactment": 26465,
    "nas": 17235,
    "scratches": 25980,
    "osman": 28609,
    "##ex": 10288,
    "##ament": 24996,
    "gatherings": 21403,
    "chords": 18495,
    "oblique": 20658,
    "##hay": 24180,
    "[unused509]": 514,
    "irvine": 16272,
    "shit": 4485,
    "intra": 26721,
    "determine": 5646,
    "[unused592]": 597,
    "[unused635]": 640,
    "morrow": 19084,
    "##\u20b1": 30103,
    "indie": 10271,
    "stormed": 16201,
    "incident": 5043,
    "amused": 11770,
    "##bler": 16213,
    "##tein": 9589,
    "[unused144]": 149,
    "selector": 27000,
    "tulsa": 16631,
    "[unused866]": 871,
    "fourteen": 7426,
    "maneuver": 17519,
    "1683": 27414,
    "liechtenstein": 26500,
    "##8th": 28264,
    "hamish": 28859,
    "tightened": 8371,
    "whipped": 12428,
    "cinematic": 21014,
    "scheduled": 5115,
    "moore": 5405,
    "punjabi": 17498,
    "bs": 18667,
    "superhero": 16251,
    "##ago": 23692,
    "1738": 28009,
    "verona": 20197,
    "tits": 25671,
    "##miya": 29312,
    "picture": 3861,
    "automatic": 6882,
    "\u0d9a": 1403,
    "[unused783]": 788,
    "toulouse": 17209,
    "marines": 9622,
    "fable": 28458,
    "##stov": 29473,
    "detector": 19034,
    "##\u0127": 29672,
    "##mt": 20492,
    "[unused424]": 429,
    "undermine": 25174,
    "breast": 7388,
    "alexei": 21219,
    "chancel": 16482,
    "meet": 3113,
    "valentine": 10113,
    "psalms": 26130,
    "##sas": 20939,
    "##pal": 12952,
    "1644": 23477,
    "##bilities": 14680,
    "tailored": 21727,
    "unfortunate": 15140,
    "\u66f8": 1871,
    "##nsis": 11745,
    "sprung": 22057,
    "stomped": 21918,
    "proxy": 24540,
    "polished": 12853,
    "##oga": 18170,
    "brittle": 24650,
    "liszt": 26273,
    "wayne": 6159,
    "autobiography": 10828,
    "wilderness": 9917,
    "attempt": 3535,
    "##\u5b66": 30343,
    "landowner": 20270,
    "workforce": 14877,
    "poisoned": 17672,
    "3rd": 3822,
    "1662": 25909,
    "blanchard": 26870,
    "decatur": 27783,
    "amos": 13744,
    "rockwell": 25235,
    "duel": 14216,
    "##pr": 18098,
    "[unused391]": 396,
    "crate": 27297,
    "sheila": 15062,
    "a1": 17350,
    "medicine": 4200,
    "##le": 2571,
    "##gli": 25394,
    "administer": 21497,
    "bn": 24869,
    "##orough": 26388,
    "unsuccessful": 7736,
    "##ix": 7646,
    "\u00a2": 1068,
    "privileges": 14310,
    "spy": 8645,
    "establishes": 21009,
    "accessibility": 23661,
    "##inatory": 28230,
    "broadway": 5934,
    "leopard": 16240,
    "decreed": 28447,
    "##\u10d0": 29974,
    "barnes": 9957,
    "cows": 17188,
    "sima": 26769,
    "nino": 20801,
    "thigh": 10120,
    "courses": 5352,
    "##\u0631": 17149,
    "exams": 13869,
    "##zzo": 12036,
    "slightly": 3621,
    "gottingen": 23607,
    "happening": 6230,
    "collapse": 7859,
    "catalog": 12105,
    "demanded": 6303,
    "games": 2399,
    "indo": 11424,
    "kazakh": 25907,
    "figuring": 23218,
    "friendships": 28956,
    "##\u00ac": 29655,
    "inscription": 9315,
    "sec": 10819,
    "thickness": 14983,
    "##mony": 22847,
    "contact": 3967,
    "##nett": 15361,
    "lyman": 27587,
    "andover": 29463,
    "terrorist": 9452,
    "tamil": 6008,
    "1791": 14362,
    "##nan": 7229,
    "sins": 15516,
    "cooke": 16546,
    "##dar": 7662,
    "bastard": 8444,
    "[unused146]": 151,
    "##pire": 20781,
    "1846": 9244,
    "##makers": 12088,
    "homecoming": 20772,
    "youngest": 6587,
    "departure": 6712,
    "horribly": 27762,
    "nuevo": 22250,
    "gospels": 24131,
    "napoleon": 8891,
    "portugal": 5978,
    "tattooed": 26464,
    "##\u1174": 30018,
    "modest": 10754,
    "[unused299]": 304,
    "danielle": 18490,
    "concerns": 5936,
    "acid": 5648,
    "minister": 2704,
    "skyscraper": 24581,
    "vittorio": 25914,
    "##3": 2509,
    "##gence": 17905,
    "[unused686]": 691,
    "prix": 5431,
    "incidence": 18949,
    "whimper": 28544,
    "brushes": 22569,
    "##bo": 5092,
    "##tten": 25970,
    "mill": 4971,
    "dismantled": 17293,
    "transformers": 19081,
    "##nous": 18674,
    "notion": 9366,
    "slips": 17433,
    "[unused151]": 156,
    "chicken": 7975,
    "forewings": 13211,
    "1664": 28485,
    "girls": 3057,
    "sami": 17015,
    "##vance": 21789,
    "celebrations": 12035,
    "that": 2008,
    "eliza": 13234,
    "abe": 14863,
    "clade": 21697,
    "##rier": 16252,
    "democratic": 3537,
    "constellation": 15300,
    "##gny": 19393,
    "##aan": 14634,
    "dignitaries": 27960,
    "foraging": 26912,
    "my": 2026,
    "percival": 27832,
    "serviced": 22858,
    "ankara": 20312,
    "armoured": 11104,
    "sliced": 15920,
    "\u1161": 1470,
    "[unused794]": 799,
    "hometown": 9627,
    "##\u028b": 29699,
    "growing": 3652,
    "mbc": 27262,
    "phrases": 15672,
    "##cera": 19357,
    "dashed": 18198,
    "tutor": 14924,
    "efficiently": 18228,
    "hastings": 12296,
    "reddish": 14182,
    "della": 8611,
    "##eter": 15141,
    "cycles": 12709,
    "bain": 28477,
    "radioactive": 17669,
    "petit": 17268,
    "salazar": 25315,
    "\u0ba9": 1387,
    "governed": 9950,
    "montane": 21704,
    "vocalist": 8032,
    "computers": 7588,
    "##rasia": 27839,
    "##38": 22025,
    "##hui": 20552,
    "irritating": 29348,
    "flowed": 13230,
    "1987": 3055,
    "robes": 17925,
    "slave": 6658,
    "calves": 28023,
    "kilometers": 7338,
    "[unused157]": 162,
    "professional": 2658,
    "safety": 3808,
    "encryption": 21999,
    "mana": 24951,
    "sat": 2938,
    "criteria": 9181,
    "[unused710]": 715,
    "throws": 11618,
    "sts": 8541,
    "actually": 2941,
    "periodicals": 21855,
    "excuses": 21917,
    "##chang": 22305,
    "colombo": 16224,
    "algorithm": 9896,
    "exceptional": 11813,
    "panel": 5997,
    "individually": 14258,
    "outta": 24955,
    "[unused273]": 278,
    "##die": 10265,
    "[unused200]": 205,
    "salsa": 26509,
    "outstanding": 5151,
    "visas": 24487,
    "gb": 16351,
    "##lah": 14431,
    "oven": 17428,
    "geraldine": 26987,
    "\u306b": 1668,
    "scream": 6978,
    "diocesan": 18680,
    "jewelry": 11912,
    "renewal": 14524,
    "##\u2085": 30081,
    "directing": 9855,
    "chapter": 3127,
    "[unused524]": 529,
    "##avia": 15164,
    "gentlemen": 11218,
    "moe": 22078,
    "ditch": 14033,
    "shark": 11420,
    "attitude": 7729,
    "reckless": 18555,
    "sham": 25850,
    "watery": 28259,
    "[unused489]": 494,
    "foundry": 19853,
    "engages": 24255,
    "ocean": 4153,
    "shane": 8683,
    "elongated": 17876,
    "dripped": 22526,
    "\u0dbb": 1405,
    "mayhem": 26865,
    "inferno": 21848,
    "##\u4ee3": 30286,
    "arriving": 7194,
    "undertake": 16617,
    "ty": 5939,
    "274": 25586,
    "bon": 14753,
    "comprehensive": 7721,
    "grow": 4982,
    "kidding": 12489,
    "restraining": 28285,
    "decline": 6689,
    "jurisdiction": 7360,
    "##6": 2575,
    "ghosts": 11277,
    "##raf": 27528,
    "helicopters": 12400,
    "seek": 6148,
    "incorporation": 16935,
    "tong": 15740,
    "five": 2274,
    "miguel": 8374,
    "railroads": 16197,
    "smashed": 14368,
    "attic": 14832,
    "##sten": 16173,
    "[PAD]": 0,
    "brilliant": 8235,
    "intelligence": 4454,
    "sorts": 11901,
    "158": 17696,
    "natasha": 17399,
    "oversight": 15709,
    "boulders": 22177,
    "##\u5149": 30296,
    "fife": 20537,
    "kinds": 7957,
    "macedonia": 11492,
    "rattled": 19252,
    "##fort": 13028,
    "thatcher": 21127,
    "supervisor": 12366,
    "garner": 18661,
    "board": 2604,
    "1934": 4579,
    "8": 1022,
    "continually": 14678,
    "aragon": 16146,
    "bundled": 24378,
    "bram": 20839,
    "routine": 9410,
    "productions": 5453,
    "beer": 5404,
    "nocturnal": 23789,
    "favors": 21191,
    "conditioning": 14372,
    "constitutes": 17367,
    "protested": 11456,
    "situations": 8146,
    "##tus": 5809,
    "circuits": 13782,
    "pages": 5530,
    "geschichte": 28299,
    "cl": 18856,
    "##fest": 14081,
    "##res": 6072,
    "##rop": 18981,
    "tyrol": 27193,
    "\u52dd": 1780,
    "##cta": 25572,
    "ware": 16283,
    "##while": 19927,
    "leigh": 11797,
    "meter": 8316,
    "decoration": 11446,
    "preserved": 6560,
    "##\u5f18": 30369,
    "sentence": 6251,
    "##force": 14821,
    "institut": 17126,
    "ronan": 18633,
    "tal": 21368,
    "candles": 14006,
    "asian": 4004,
    "resurrected": 23053,
    "trapping": 22977,
    "frigate": 15437,
    "fabrication": 25884,
    "1752": 24736,
    "##ifier": 18095,
    "ballast": 28030,
    "flees": 24776,
    "##ei": 7416,
    "##pot": 11008,
    "1746": 24507,
    "[unused108]": 113,
    "##iya": 8717,
    "inca": 27523,
    "largest": 2922,
    "epa": 19044,
    "##\u3075": 30200,
    "1016": 28707,
    "melbourne": 4940,
    "royalties": 25335,
    "avail": 24608,
    "nickname": 8367,
    "separate": 3584,
    "emails": 22028,
    "truck": 4744,
    "\u4e09": 1741,
    "104": 9645,
    "ellie": 10707,
    "backup": 10200,
    "preliminary": 8824,
    "como": 18609,
    "mile": 3542,
    "##\u8033": 30463,
    "gorman": 25693,
    "melody": 8531,
    "##ested": 17944,
    "short": 2460,
    "##gpur": 25758,
    "confronting": 26964,
    "celtic": 8730,
    "flair": 22012,
    "tristan": 9822,
    "necklace": 13016,
    "prowess": 26120,
    "##qui": 15549,
    "factor": 5387,
    "##lga": 27887,
    "##mir": 14503,
    "categories": 7236,
    "##ogy": 15707,
    "spanish": 3009,
    "##hara": 11077,
    "[unused228]": 233,
    "[unused241]": 246,
    "movements": 5750,
    "skies": 15717,
    "##\u0268": 29684,
    "##acion": 21736,
    "##se": 3366,
    "biennial": 20313,
    "hull": 6738,
    "##ert": 8743,
    "##cki": 18009,
    "coloring": 22276,
    "mistaken": 13534,
    "willis": 12688,
    "##rgeon": 28242,
    "antiquity": 16433,
    "mainly": 3701,
    "observed": 5159,
    "##\u1d56": 30040,
    "1833": 11040,
    "##\u09a4": 29898,
    "##horpe": 22044,
    "impromptu": 29213,
    "stepped": 3706,
    "bacteria": 10327,
    "ultimately": 4821,
    "##do": 3527,
    "residence": 5039,
    "swift": 9170,
    "squash": 18794,
    "##enberg": 11029,
    "##zee": 23940,
    "##tip": 25101,
    "grinding": 16153,
    "##\u099a": 29892,
    "##dell": 12662,
    "mum": 12954,
    "independent": 2981,
    "flexed": 24244,
    "reelected": 20847,
    "intending": 16533,
    "storage": 5527,
    "[unused339]": 344,
    "\u0ba4": 1385,
    "troy": 9553,
    "hitch": 27738,
    "fluttering": 25001,
    "spoiled": 19582,
    "##\u0630": 29822,
    "pots": 18911,
    "ferry": 7115,
    "saline": 28413,
    "phrase": 7655,
    "##\u00ab": 29654,
    "dispatched": 14501,
    "ismail": 19214,
    "sensual": 18753,
    "sting": 12072,
    "##dom": 9527,
    "##\u0263": 29683,
    "##utation": 26117,
    "##uer": 13094,
    "ominous": 23504,
    "\u0436": 1186,
    "grassy": 22221,
    "kali": 19924,
    "\u05d8": 1249,
    "only": 2069,
    "tidy": 29369,
    "##ffe": 16020,
    "dixon": 11357,
    "rourke": 24400,
    "plaster": 15673,
    "\u4f1a": 1763,
    "failure": 4945,
    "grill": 18651,
    "##agne": 25440,
    "ready": 3201,
    "##mament": 28119,
    "berman": 29482,
    "how": 2129,
    "in": 1999,
    "##dna": 28911,
    "rabbi": 7907,
    "testosterone": 25937,
    "##ness": 2791,
    "amazon": 9733,
    "hampered": 22532,
    "vh1": 26365,
    "##weig": 27204,
    "defender": 8291,
    "mansfield": 15352,
    "##an": 2319,
    "granted": 4379,
    "morton": 11164,
    "tsar": 17608,
    "databases": 17881,
    "##eni": 18595,
    "pays": 12778,
    "invented": 8826,
    "[unused334]": 339,
    "##ryl": 23320,
    "isil": 19600,
    "measurements": 11702,
    "remark": 17674,
    "##rified": 22618,
    "determines": 16463,
    "##\u00ae": 29656,
    "katharine": 25739,
    "slovak": 12747,
    "specifications": 15480,
    "jars": 25067,
    "spirited": 24462,
    "lax": 27327,
    "267": 25491,
    "zane": 6944,
    "##ocks": 25384,
    "consultation": 16053,
    "mn": 24098,
    "disorder": 8761,
    "##owe": 29385,
    "sufi": 21845,
    "vascular": 21449,
    "push": 5245,
    "shivered": 13927,
    "##orescence": 20030,
    "##een": 12129,
    "kala": 26209,
    "ts": 24529,
    "tulane": 27437,
    "##rrigan": 28706,
    "authoritarian": 27246,
    "hatch": 11300,
    "intent": 7848,
    "whitney": 9809,
    "dept": 29466,
    "seville": 18983,
    "dissemination": 28170,
    "[unused328]": 333,
    "##\u7acb": 30457,
    "pudding": 29593,
    "89": 6486,
    "alfredo": 19423,
    "planted": 8461,
    "pisa": 25472,
    "spawning": 27957,
    "##ay": 4710,
    "##walk": 17122,
    "appreciation": 12284,
    "##sor": 21748,
    "##tila": 26065,
    "grief": 9940,
    "##lding": 24573,
    "1959": 3851,
    "sufficient": 7182,
    "##corp": 24586,
    "crosby": 14282,
    "##lings": 11227,
    "rammed": 27653,
    "representative": 4387,
    "preface": 18443,
    "##rank": 26763,
    "arbitration": 18010,
    "malicious": 24391,
    "blocks": 5991,
    "chatham": 16727,
    "1724": 26423,
    "seam": 25180,
    "##leader": 19000,
    "atmospheric": 12483,
    "##ere": 7869,
    "alleging": 23294,
    "yanked": 10963,
    "irish": 3493,
    "cramped": 22766,
    "economies": 18730,
    "laboratories": 12030,
    "military": 2510,
    "universal": 5415,
    "resistant": 13070,
    "eduardo": 14846,
    "##ien": 9013,
    "##\u793a": 30449,
    "pbs": 13683,
    "quality": 3737,
    "accompaniment": 22205,
    "regiment": 3483,
    "reign": 5853,
    "resigning": 24642,
    "\u0645": 1295,
    "streetcar": 21420,
    "hays": 29051,
    "##\u826f": 30464,
    "[unused541]": 546,
    "printed": 6267,
    "aces": 20232,
    "##mite": 23419,
    "##tenberg": 21806,
    "legs": 3456,
    "majesty": 9995,
    "mature": 9677,
    "net": 5658,
    "vengeance": 14096,
    "protections": 28548,
    "wingspan": 9635,
    "\u201d": 1524,
    "obscure": 14485,
    "319": 26499,
    "\u6ca2": 1898,
    "##pre": 28139,
    "beam": 7504,
    "fossil": 10725,
    "remorse": 23124,
    "##ibly": 17296,
    "privately": 9139,
    "decisive": 13079,
    "township": 3545,
    "[unused227]": 232,
    "annals": 16945,
    "ravine": 23188,
    "importance": 5197,
    "missionaries": 11743,
    "edited": 5493,
    "##oi": 10448,
    "forever": 5091,
    "halo": 17201,
    "##set": 13462,
    "implying": 20242,
    "39": 4464,
    "malik": 14360,
    "cosmopolitan": 24686,
    "fk": 14352,
    "martin": 3235,
    "mediation": 26435,
    "human": 2529,
    "##ige": 25538,
    "##ttal": 28200,
    "tools": 5906,
    "jurist": 22757,
    "hymn": 14825,
    "cremated": 28376,
    "climax": 14463,
    "guggenheim": 20402,
    "\u3009": 1638,
    "celebrities": 12330,
    "paris": 3000,
    "hart": 7530,
    "admiralty": 14179,
    "##wheel": 22920,
    "##\u305f": 30187,
    "jade": 12323,
    "ting": 28642,
    "franchises": 22506,
    "\u2083": 1550,
    "drawer": 13065,
    "socks": 14829,
    "[unused287]": 292,
    "anxiously": 23403,
    "estadio": 14143,
    "implant": 27159,
    "lancashire": 9638,
    "forgetting": 17693,
    "manga": 8952,
    "rosenthal": 29062,
    "##cable": 21170,
    "danes": 27476,
    "os": 9808,
    "epithet": 19626,
    "hp": 6522,
    "##qua": 16211,
    "dilapidated": 29283,
    "reinforced": 11013,
    "stick": 6293,
    "impact": 4254,
    "beast": 6841,
    "ignore": 8568,
    "risking": 26875,
    "46": 4805,
    "martha": 9246,
    "stays": 12237,
    "betrayal": 14583,
    "themed": 11773,
    "captive": 12481,
    "##fixed": 23901,
    "removes": 20362,
    "lin": 11409,
    "bangalore": 14022,
    "diablo": 28841,
    "##\u2019": 30056,
    "hardship": 26479,
    "windows": 3645,
    "endeavor": 23855,
    "##acies": 20499,
    "##yman": 17906,
    "derivative": 13819,
    "dwyer": 29394,
    "pasture": 20787,
    "its": 2049,
    "propellers": 23405,
    "##ro": 3217,
    "jerusalem": 6744,
    "[unused793]": 798,
    "##nath": 16207,
    "cdp": 8561,
    "##stic": 10074,
    "##bala": 25060,
    "##side": 7363,
    "meters": 5563,
    "[unused423]": 428,
    "[unused240]": 245,
    "1743": 25615,
    "heavier": 11907,
    "##liness": 20942,
    "civil": 2942,
    "title": 2516,
    "motto": 12652,
    "sweetheart": 12074,
    "died": 2351,
    "##inen": 21820,
    "resides": 11665,
    "effort": 3947,
    "outbreak": 8293,
    "peterson": 12001,
    "stems": 12402,
    "lined": 7732,
    "birthday": 5798,
    "redundant": 21707,
    "xl": 28712,
    "rested": 8614,
    "greasy": 26484,
    "keyboardist": 20173,
    "ashok": 28916,
    "overcoming": 27363,
    "gardens": 5822,
    "projecting": 18398,
    "lair": 21039,
    "##aka": 11905,
    "##long": 10052,
    "##pour": 27757,
    "confusion": 6724,
    "equivalence": 27841,
    "mcnamara": 28340,
    "apostles": 19178,
    "labels": 10873,
    "timothy": 10805,
    "1830s": 20400,
    "\u5409": 1793,
    "##ille": 10484,
    "middlesex": 13654,
    "unfair": 15571,
    "[unused24]": 25,
    "charley": 20430,
    "\u0f66": 1436,
    "##arina": 27943,
    "##\u30c8": 30240,
    "buckle": 22853,
    "moan": 13673,
    "taxa": 23726,
    "1941": 3874,
    "mar": 9388,
    "rapids": 12775,
    "wilmington": 17025,
    "##pio": 22071,
    "##kins": 14322,
    "photograph": 9982,
    "rang": 8369,
    "co": 2522,
    "##cliffe": 18115,
    "scuba": 28651,
    "##cting": 11873,
    "[unused511]": 516,
    "##uze": 20395,
    "abuse": 6905,
    "awarding": 21467,
    "transformation": 8651,
    "##patient": 24343,
    "sherry": 22268,
    "##hema": 28433,
    "colorado": 5169,
    "deposit": 12816,
    "tyne": 17742,
    "laundry": 14533,
    "gripped": 9672,
    "[unused12]": 13,
    "royalist": 20796,
    "buckingham": 17836,
    "##pine": 19265,
    "hiking": 13039,
    "\u3089": 1685,
    "bark": 11286,
    "##line": 4179,
    "rubin": 20524,
    "##pani": 26569,
    "cooking": 8434,
    "loomed": 24358,
    "##ort": 11589,
    "marlins": 27055,
    "[unused888]": 893,
    "[unused738]": 743,
    "257": 24368,
    "ctv": 28720,
    "genetics": 14471,
    "optics": 21026,
    "screened": 12238,
    "##\u0965": 29881,
    "showered": 23973,
    "228": 22238,
    "austrian": 6161,
    "long": 2146,
    "package": 7427,
    "snout": 17291,
    "hackney": 28425,
    "croft": 28983,
    "flanagan": 26558,
    "soviet": 3354,
    "benign": 28378,
    "rumours": 19200,
    "##wley": 20609,
    "fibre": 20962,
    "flooded": 10361,
    "late": 2397,
    "##tch": 10649,
    "##\u5f8c": 30372,
    "hoffmann": 24437,
    "susannah": 20471,
    "seasonal": 12348,
    "317": 26628,
    "jace": 10352,
    "strict": 9384,
    "##uc": 14194,
    "standards": 4781,
    "##claim": 25154,
    "##pus": 12207,
    "nilsson": 29376,
    "\u092d": 1330,
    "afternoons": 24738,
    "##ifies": 14144,
    "1996": 2727,
    "mustafa": 19683,
    "recovered": 6757,
    "operatic": 22534,
    "wehrmacht": 23443,
    "angeles": 3349,
    "taiwan": 6629,
    "vaudeville": 19698,
    "1874": 7586,
    "mercantile": 25420,
    "landscaping": 28404,
    "##\u00d7": 26306,
    "##wan": 7447,
    "palace": 4186,
    "degrees": 5445,
    "absent": 9962,
    "##\u2082": 8229,
    "dad": 3611,
    "suburbs": 9435,
    "cent": 9358,
    "wife": 2564,
    "##get": 18150,
    "hyper": 23760,
    "1990s": 4134,
    "[unused203]": 208,
    "[unused249]": 254,
    "tasted": 12595,
    "legislator": 22964,
    "snort": 26759,
    "vinegar": 29387,
    "##utnant": 24620,
    "83": 6640,
    "stephens": 15037,
    "reprise": 16851,
    "##ume": 17897,
    "131": 14677,
    "interacting": 21935,
    "ion": 10163,
    "cheat": 21910,
    "alien": 7344,
    "##\u5948": 30340,
    "peck": 18082,
    "comment": 7615,
    "bengal": 8191,
    "sleeper": 24372,
    "tombs": 16623,
    "bite": 6805,
    "fishes": 21995,
    "dependent": 7790,
    "gas": 3806,
    "hideout": 29588,
    "hills": 4564,
    "impose": 17607,
    "cummings": 20750,
    "appropriately": 23263,
    "posthumous": 19086,
    "waves": 5975,
    "weed": 17901,
    "##phonic": 27385,
    "##ouse": 15441,
    "##yam": 14852,
    "##ues": 15808,
    "investigations": 9751,
    "deposited": 14140,
    "clinch": 29119,
    "##all": 8095,
    "shia": 20474,
    "volga": 26459,
    "rothschild": 19712,
    "[unused661]": 666,
    "manila": 9011,
    "227": 21489,
    "blogs": 23012,
    "##uga": 16377,
    "scandinavia": 20612,
    "vaughan": 14461,
    "misconduct": 23337,
    "proposing": 21991,
    "lama": 18832,
    "selects": 27034,
    "##eda": 11960,
    "##\u0111": 29671,
    "breasts": 12682,
    "peruvian": 15432,
    "##\u8fb6": 30482,
    "##ever": 22507,
    "surgical": 11707,
    "ceremonial": 12961,
    "gotten": 5407,
    "respond": 6869,
    "cash": 5356,
    "degradation": 16627,
    "grazed": 26627,
    "##tri": 18886,
    "limestone": 9771,
    "symmetric": 19490,
    "california": 2662,
    "ukraine": 5924,
    "faltered": 26015,
    "fitzroy": 21870,
    "inclusive": 18678,
    "departmental": 28912,
    "gregory": 7296,
    "corruption": 7897,
    "liar": 16374,
    "##tonic": 25009,
    "curated": 17940,
    "deposed": 18298,
    "imposing": 16625,
    "rodgers": 15652,
    "##hong": 19991,
    "professors": 12655,
    "pioneer": 7156,
    "##wl": 13668,
    "aiden": 15086,
    "\u53e4": 1789,
    "effects": 3896,
    "jews": 5181,
    "turtle": 13170,
    "##well": 4381,
    "\u03c0": 1170,
    "soo": 17111,
    "##ots": 12868,
    "intensity": 8015,
    "stressed": 13233,
    "trajectory": 22793,
    "ain": 7110,
    "translucent": 22897,
    "bobbie": 27731,
    "attribute": 17961,
    "##\u0f58": 29968,
    "programmer": 20273,
    "##tley": 18492,
    "[unused920]": 925,
    "1835": 10150,
    "oleg": 25841,
    "stuttgart": 13022,
    "brien": 9848,
    "alf": 24493,
    "fallon": 16443,
    "[unused775]": 780,
    "safer": 13726,
    "[unused335]": 340,
    "creole": 21414,
    "ivy": 7768,
    "stafford": 15064,
    "alt": 12456,
    "role": 2535,
    "discs": 15303,
    "fifteen": 5417,
    "idols": 24438,
    "modification": 14080,
    "[unused191]": 196,
    "sheppard": 24976,
    "hawk": 9881,
    "loose": 6065,
    "nelson": 5912,
    "steered": 23424,
    "formed": 2719,
    "bb": 22861,
    "##ser": 8043,
    "addiction": 13449,
    "##\u667a": 30395,
    "devised": 14917,
    "govern": 21208,
    "incumbent": 7703,
    "malacca": 28481,
    "slots": 19832,
    "##sling": 28886,
    "1550": 26245,
    "riddle": 21834,
    "##\u0679": 29838,
    "\u30f3": 1737,
    "rhea": 24775,
    "##jk": 15992,
    "##guard": 18405,
    "##rator": 16259,
    "elisabeth": 12877,
    "##lets": 13461,
    "boats": 6242,
    "northernmost": 22037,
    "##3d": 29097,
    "##ping": 4691,
    "sheer": 11591,
    "modifying": 29226,
    "potion": 26722,
    "##leen": 24129,
    "put": 2404,
    "##\u4ecb": 30285,
    "isolation": 12477,
    "##ttering": 19567,
    "##iga": 13340,
    "1940": 3878,
    "##mbe": 18552,
    "advisor": 8619,
    "financed": 13790,
    "hurry": 9241,
    "ile": 17869,
    "lumber": 13891,
    "wanting": 5782,
    "villagers": 11904,
    "##gins": 16529,
    "convictions": 20488,
    "mccoy": 16075,
    "severely": 8949,
    "##zily": 28431,
    "##pres": 28994,
    "spotted": 7282,
    "takes": 3138,
    "sunny": 11559,
    "companions": 11946,
    "opined": 26084,
    "helsinki": 12331,
    "##bank": 9299,
    "##gin": 11528,
    "[unused822]": 827,
    "pinched": 18521,
    "hammersmith": 28420,
    "1634": 28502,
    "square": 2675,
    "brisk": 28022,
    "input": 7953,
    "[unused748]": 753,
    "laurence": 10883,
    "representing": 5052,
    "tbs": 29584,
    "directive": 16449,
    "conductor": 7589,
    "##brates": 25258,
    "inform": 12367,
    "logan": 6307,
    "melee": 27868,
    "##55": 24087,
    "competitive": 6975,
    "eight": 2809,
    "be": 2022,
    "darkening": 27862,
    "##dle": 10362,
    "##ente": 15781,
    "caroline": 7981,
    "develops": 11791,
    "judged": 13224,
    "\u05e3": 1260,
    "rejection": 13893,
    "##oton": 25862,
    "##gged": 15567,
    "bays": 13933,
    "stan": 9761,
    "##ars": 11650,
    "critic": 6232,
    "flaps": 26570,
    "490": 22288,
    "shoes": 6007,
    "...": 2133,
    "hospice": 29277,
    "##att": 19321,
    "voices": 5755,
    "teammates": 13220,
    "invading": 17657,
    "\u660e": 1865,
    "possessing": 18840,
    "extreme": 6034,
    "brighton": 10309,
    "zack": 13658,
    "shelf": 11142,
    "lang": 11374,
    "##kill": 15872,
    "medallist": 28595,
    "airs": 14369,
    "mca": 22432,
    "##vah": 21927,
    "mohamed": 14467,
    "##yn": 6038,
    "aromatic": 25496,
    "ideological": 17859,
    "surreal": 16524,
    "bingo": 27137,
    "sheltered": 18304,
    "##iss": 14643,
    "shoots": 11758,
    "surround": 15161,
    "fox": 4419,
    "reminds": 15537,
    "surfing": 19967,
    "exponential": 27258,
    "acquisition": 7654,
    "pilots": 8221,
    "##cina": 28748,
    "##\u0647": 14157,
    "950": 20317,
    "begging": 12858,
    "commissioners": 12396,
    "##rford": 26430,
    "carter": 5708,
    "demands": 7670,
    "forty": 5659,
    "[unused173]": 178,
    "houghton": 21234,
    "aluminum": 13061,
    "spokesman": 14056,
    "joking": 16644,
    "##ply": 22086,
    "##aceous": 25560,
    "##\u00a5": 29648,
    "pairing": 22778,
    "carriage": 9118,
    "##tori": 29469,
    "##type": 13874,
    "cabin": 6644,
    "mimi": 20705,
    "##zbek": 28733,
    "##\u05d5": 29792,
    "discusses": 15841,
    "##\u3088": 30210,
    "grins": 20237,
    "feathers": 12261,
    "pathways": 16910,
    "\u2248": 1606,
    "##bruck": 28985,
    "pensacola": 26073,
    "likelihood": 16593,
    "constant": 5377,
    "incense": 28647,
    "##uron": 21017,
    "roche": 20162,
    "renovations": 15576,
    "##tow": 18790,
    "5th": 4833,
    "marianne": 19887,
    "wondering": 6603,
    "hawks": 12505,
    "tourists": 9045,
    "commanding": 7991,
    "unanimous": 13604,
    "##otide": 26601,
    "because": 2138,
    "bowls": 15220,
    "trunks": 20509,
    "\u2099": 1568,
    "\u516c": 1772,
    "banded": 25264,
    "wessex": 27886,
    "ems": 29031,
    "indefinite": 25617,
    "position": 2597,
    "1643": 25534,
    "reminiscent": 14563,
    "been": 2042,
    "denoted": 19537,
    "tournaments": 8504,
    "##ob": 16429,
    "##aid": 14326,
    "[unused856]": 861,
    "[unused581]": 586,
    "hume": 20368,
    "improvised": 19641,
    "meng": 27955,
    "mit": 10210,
    "mortal": 9801,
    "[unused300]": 305,
    "sheet": 7123,
    "ceilings": 21098,
    "bankrupt": 17482,
    "adjutant": 20690,
    "##|": 29641,
    "##dget": 24291,
    "eaten": 8828,
    "##\u671d": 30400,
    "##\u9999": 30505,
    "hesse": 16399,
    "##physical": 23302,
    "###": 29614,
    "##gio": 11411,
    "rejecting": 21936,
    "dire": 18704,
    "##llah": 18599,
    "lost": 2439,
    "lds": 17627,
    "640": 19714,
    "photography": 5855,
    "##rao": 25667,
    "##\u307b": 30202,
    "schizophrenia": 23683,
    "##\u53e3": 30314,
    "chow": 20209,
    "dog": 3899,
    "reading": 3752,
    "temporal": 15850,
    "tottenham": 18127,
    "premise": 18458,
    "bouncing": 16361,
    "zulu": 27359,
    "gupta": 20512,
    "density": 4304,
    "##vern": 23062,
    "trigger": 9495,
    "alla": 25699,
    "eddy": 16645,
    "##gau": 20420,
    "##aea": 21996,
    "sigma": 13201,
    "contacted": 11925,
    "pedal": 15749,
    "##\u0435\u0432\u0438\u0447": 22646,
    "mimic": 23150,
    "bottom": 3953,
    "blackmail": 25044,
    "designed": 2881,
    "hip": 5099,
    "miscellaneous": 25408,
    "graph": 10629,
    "##pressive": 27484,
    "##\u05d4": 29128,
    "bear": 4562,
    "prehistoric": 14491,
    "aubrey": 18961,
    "skeletal": 20415,
    "storm": 4040,
    "##firm": 27972,
    "extracted": 15901,
    "hmm": 17012,
    "anywhere": 5973,
    "betting": 19244,
    "hub": 9594,
    "##vb": 26493,
    "mtv": 8692,
    "rbi": 16929,
    "##\u5409": 30319,
    "##lance": 23078,
    "blackburn": 13934,
    "actors": 5889,
    "warns": 19428,
    "##lham": 25968,
    "martini": 24480,
    "a": 1037,
    "bernardino": 21370,
    "\u4e4b": 1749,
    "team": 2136,
    "mystical": 17529,
    "6000": 25961,
    "photon": 26383,
    "\u00a4": 1070,
    "##\u0dba": 29940,
    "banner": 9484,
    "nan": 16660,
    "dread": 14436,
    "##lak": 23451,
    "1933": 4537,
    "associate": 5482,
    "relativity": 20805,
    "hurst": 26405,
    "money": 2769,
    "everyone": 3071,
    "vila": 23840,
    "crises": 25332,
    "##tose": 22282,
    "claim": 4366,
    "spot": 3962,
    "embraced": 14218,
    "unpaid": 23850,
    "mussolini": 22554,
    "rue": 13413,
    "##ino": 5740,
    "dissatisfied": 25956,
    "electro": 16175,
    "extra": 4469,
    "republican": 3951,
    "breach": 12510,
    "broadcasts": 8960,
    "[unused263]": 268,
    "casey": 9036,
    "##mian": 20924,
    "chat": 11834,
    "gay": 5637,
    "montagu": 26241,
    "sentiment": 15792,
    "mojo": 28017,
    "litres": 25783,
    "coated": 15026,
    "goddard": 22547,
    "explosive": 11355,
    "persuaded": 11766,
    "##dman": 21804,
    "[unused909]": 914,
    "[unused968]": 973,
    "[unused170]": 175,
    "bells": 10118,
    "##bon": 11735,
    "pro": 4013,
    "chrome": 18546,
    "bizarre": 13576,
    "eucalyptus": 27111,
    "weightlifting": 29305,
    "##iferous": 23930,
    "##sul": 23722,
    "##ace": 10732,
    "website": 4037,
    "quad": 17718,
    "rivers": 5485,
    "adventurous": 29118,
    "##pd": 17299,
    "android": 11924,
    "[unused80]": 81,
    "buckley": 17898,
    "cong": 26478,
    "attaining": 26615,
    "ministries": 16410,
    "whispered": 3990,
    "revolutionaries": 24517,
    "1917": 4585,
    "cranes": 27083,
    "alexandre": 16971,
    "seduce": 23199,
    "cis": 20199,
    "assured": 8916,
    "abroad": 6917,
    "raced": 8255,
    "\u30a8": 1698,
    "mob": 11240,
    "##erian": 27549,
    "logging": 15899,
    "bel": 19337,
    "##ate": 3686,
    "botanist": 17098,
    "experimentation": 21470,
    "sis": 24761,
    "[unused818]": 823,
    "##kulam": 28871,
    "declined": 6430,
    "funding": 4804,
    "wolff": 23498,
    "history": 2381,
    "ironically": 18527,
    "effortlessly": 29483,
    "somber": 28587,
    "callie": 20072,
    "during": 2076,
    "davey": 20436,
    "##\u5206": 30301,
    "kgb": 25467,
    "jess": 12245,
    "sho": 26822,
    "caledonia": 19305,
    "aboriginal": 9757,
    "2018": 2760,
    "##hian": 14204,
    "adventure": 6172,
    "near": 2379,
    "insight": 12369,
    "##peed": 25599,
    "brink": 20911,
    "contracted": 11016,
    "sensation": 8742,
    "amended": 13266,
    "##urn": 14287,
    "candi": 27467,
    "muller": 12304,
    "prototypes": 19599,
    "nigeria": 7387,
    "portage": 25140,
    "accelerate": 23306,
    "lantern": 12856,
    "corpses": 18113,
    "##hrer": 17875,
    "[unused223]": 228,
    "exemplified": 28593,
    "townsville": 27492,
    "drawn": 4567,
    "##heim": 8049,
    "including": 2164,
    "quentin": 15969,
    "##x": 2595,
    "##ype": 18863,
    "disqualified": 14209,
    "1816": 12357,
    "1400": 20652,
    "##ree": 9910,
    "ae": 29347,
    "frontal": 19124,
    "stiffened": 16090,
    "camera": 4950,
    "##uid": 21272,
    "quarterback": 9074,
    "successful": 3144,
    "denotes": 14796,
    "layne": 22452,
    "rallied": 24356,
    "stages": 5711,
    "\u05ea": 1267,
    "##86": 20842,
    "bodo": 28137,
    "##\u300b": 30166,
    "positive": 3893,
    "182": 17691,
    "astrid": 27376,
    "hating": 22650,
    "advancing": 10787,
    "\u057f": 1236,
    "join": 3693,
    "\u10e1": 1452,
    "##\u98df": 30504,
    "combines": 13585,
    "shaun": 16845,
    "apostle": 20121,
    "ferocious": 27863,
    "devastating": 14886,
    "[unused959]": 964,
    "agnes": 11166,
    "##lace": 19217,
    "feb": 13114,
    "rot": 18672,
    "unless": 4983,
    "publicly": 7271,
    "f1": 20069,
    "phone": 3042,
    "spiral": 12313,
    "brunei": 18692,
    "coverage": 6325,
    "##llin": 21202,
    "paulo": 9094,
    "augsburg": 24362,
    "##nic": 8713,
    "##que": 4226,
    "coup": 8648,
    "license": 6105,
    "corey": 18132,
    "##rling": 22036,
    "supervise": 28589,
    "##ays": 22916,
    "pony": 15606,
    "orioles": 18893,
    "interlude": 25347,
    "rd": 16428,
    "rama": 14115,
    "##sa": 3736,
    "repair": 7192,
    "ipod": 26322,
    "safely": 9689,
    "clean": 4550,
    "christians": 8135,
    "prasad": 17476,
    "josephine": 16117,
    "91": 6205,
    "gill": 12267,
    "china": 2859,
    "demeanor": 21745,
    "tracing": 16907,
    "lean": 8155,
    "##lten": 29005,
    "aquatics": 26649,
    "crawley": 28854,
    "adjoining": 13562,
    "seafood": 23621,
    "##ule": 9307,
    "[unused123]": 128,
    "legends": 9489,
    "excited": 7568,
    "vegetables": 11546,
    "intervening": 26623,
    "dancer": 8033,
    "neighboring": 8581,
    "puff": 23893,
    "interchange": 8989,
    "##\u0f62": 29970,
    "famed": 15607,
    "##uled": 18696,
    "regretted": 18991,
    "democrats": 8037,
    "##omba": 24991,
    "##cker": 9102,
    "revenue": 6599,
    "upgrading": 25925,
    "wounding": 27285,
    "symphony": 6189,
    "##ker": 5484,
    "[unused789]": 794,
    "shovel": 24596,
    "stare": 6237,
    "##flower": 14156,
    "690": 28066,
    "lynne": 26938,
    "monkeys": 17059,
    "[unused626]": 631,
    "austria": 5118,
    "expenses": 11727,
    "collapses": 25938,
    "##iform": 22631,
    "centrally": 25497,
    "clockwise": 22839,
    "\u0643": 1293,
    "bangs": 28490,
    "chrysler": 17714,
    "fifteenth": 16249,
    "ravi": 16806,
    "veracruz": 23741,
    "##chfield": 22693,
    "\u044e": 1209,
    "##cier": 19562,
    "unaware": 11499,
    "charting": 17918,
    "beethoven": 15461,
    "sing": 6170,
    "thumped": 28963,
    "##less": 3238,
    "##aca": 19629,
    "thumping": 25996,
    "dorsal": 12759,
    "reel": 15934,
    "seller": 14939,
    "respectable": 19416,
    "rainforest": 18951,
    "associations": 8924,
    "29th": 16318,
    "1955": 3982,
    "##uls": 28426,
    "##text": 18209,
    "trieste": 25199,
    "neptune": 21167,
    "chromosomes": 26874,
    "infection": 8985,
    "instances": 12107,
    "##itive": 13043,
    "utmost": 27917,
    "[unused965]": 970,
    "##keeping": 18321,
    "power": 2373,
    "fiba": 13651,
    "plurality": 29018,
    "roderick": 28326,
    "\u2207": 1595,
    "whales": 17967,
    "gage": 10012,
    "matthew": 5487,
    "smirk": 15081,
    "yu": 9805,
    "momentarily": 16032,
    "[unused603]": 608,
    "meade": 26501,
    "knights": 7307,
    "complex": 3375,
    "##awa": 10830,
    "1713": 27016,
    "pencil": 14745,
    "modernist": 19770,
    "suitcase": 15940,
    "\u03c1": 1171,
    "##llon": 22179,
    "hoop": 27669,
    "##erre": 28849,
    "miraculous": 26106,
    "pet": 9004,
    "ex": 4654,
    "barak": 27739,
    "dream": 3959,
    "fantasia": 29203,
    "mavericks": 28330,
    "plastic": 6081,
    "zeta": 23870,
    "\u091f": 1320,
    "beat": 3786,
    "perfectly": 6669,
    "[unused289]": 294,
    "##pack": 23947,
    "erect": 14908,
    "##ners": 16912,
    "hearing": 4994,
    "nam": 15125,
    "##cide": 27082,
    "##pur": 5311,
    "[unused393]": 398,
    "anwar": 28372,
    "monitored": 17785,
    "pinning": 22866,
    "##aurus": 17342,
    "torment": 21741,
    "felix": 8383,
    "digitally": 18397,
    "##bone": 14417,
    "superiors": 22983,
    "##\u02b0": 29706,
    "1695": 29140,
    "stuart": 6990,
    "fitness": 10516,
    "iran": 4238,
    "slain": 19668,
    "vaguely": 15221,
    "##gnan": 28207,
    "##onate": 21149,
    "[MASK]": 103,
    "##ctive": 15277,
    "bridges": 7346,
    "gore": 13638,
    "larkin": 25570,
    "offices": 4822,
    "termination": 18287,
    "falsely": 23123,
    "##\u2194": 30115,
    "dh": 28144,
    "\u09c7": 1381,
    "leinster": 15684,
    "circling": 18519,
    "320": 13710,
    "brat": 28557,
    "housing": 3847,
    "##notes": 20564,
    "\u044d": 1208,
    "fishery": 22880,
    "owl": 13547,
    "schultz": 22378,
    "stiff": 10551,
    "louder": 10989,
    "climbed": 6589,
    "motown": 22654,
    "##tle": 9286,
    "reunited": 11653,
    "commodities": 21955,
    "corbett": 24119,
    "[unused700]": 705,
    "impetus": 27961,
    "nominations": 9930,
    "lucie": 28831,
    "baseline": 26163,
    "##ffie": 29055,
    "intervention": 8830,
    "crossover": 16335,
    "searching": 6575,
    "tornado": 11352,
    "\u00b5": 1085,
    "1943": 3826,
    "consistency": 18700,
    "announces": 17472,
    "disturbance": 16915,
    "stockholm": 8947,
    "retrieved": 5140,
    "canucks": 26177,
    "limousine": 28012,
    "scientology": 23845,
    "ingrid": 22093,
    "improved": 5301,
    "crimes": 6997,
    "##kushima": 24917,
    "##\u2089": 30085,
    "employing": 15440,
    "adventurer": 29506,
    "\u548c": 1796,
    "whose": 3005,
    "puck": 22900,
    "[unused250]": 255,
    "##ciency": 29125,
    "portland": 6734,
    "ran": 2743,
    "carriers": 11363,
    "##\u5fe0": 30378,
    "##\u02d0": 23432,
    "inland": 9514,
    "product": 4031,
    "macedonian": 13037,
    "odyssey": 18735,
    "founder": 3910,
    "muslim": 5152,
    "places": 3182,
    "##lke": 28143,
    "horizontally": 23190,
    "utter": 14395,
    "##illo": 10486,
    "flinched": 19201,
    "miocene": 26926,
    "twain": 24421,
    "eruption": 17259,
    "cleveland": 6044,
    "reacting": 24868,
    "ruse": 26307,
    "tertiary": 13553,
    "##\u266f": 30154,
    "countered": 17970,
    "##rland": 18324,
    "##oc": 10085,
    "childless": 26983,
    "##ensburg": 28812,
    "jamie": 6175,
    "##nical": 20913,
    "intersect": 29261,
    "exclude": 23329,
    "lobbied": 26421,
    "\u0443": 1198,
    "railway": 2737,
    "handled": 8971,
    "pushing": 6183,
    "inmate": 24467,
    "recalls": 17722,
    "totals": 21948,
    "supportive": 16408,
    "filming": 7467,
    "myriad": 25028,
    "restructuring": 18322,
    "##\u043d\u0430": 19865,
    "ibrahim": 13477,
    "declan": 16494,
    "augustus": 11668,
    "agustin": 26889,
    "ein": 16417,
    "museum": 2688,
    "albrecht": 25542,
    "oro": 20298,
    "features": 2838,
    "trauma": 12603,
    "\u062b": 1274,
    "\u306f": 1672,
    "ndp": 21915,
    "acquainted": 19056,
    "soaked": 13077,
    "##lty": 24228,
    "fossils": 11954,
    "##gp": 21600,
    "\u4e94": 1753,
    "grant": 3946,
    "consultancy": 24853,
    "marijuana": 16204,
    "##vron": 28588,
    "glistening": 25203,
    "aeronautical": 25010,
    "counted": 8897,
    "knocked": 6573,
    "alec": 9752,
    "cancer": 4456,
    "##ics": 6558,
    "entrusted": 18011,
    "decreasing": 16922,
    "##cona": 24366,
    "##around": 24490,
    "analogy": 23323,
    "finale": 9599,
    "wings": 4777,
    "##psis": 18409,
    "311": 23532,
    "\u027e": 1126,
    "gs": 28177,
    "tripoli": 21841,
    "1645": 26081,
    "##ky": 4801,
    "wrexham": 27119,
    "##hale": 15238,
    "##chu": 20760,
    "glendale": 27649,
    "##nko": 16107,
    "ballot": 10428,
    "hectares": 9076,
    "citizen": 6926,
    "[unused211]": 216,
    "evolved": 7964,
    "suv": 15620,
    "##tson": 25656,
    "employs": 13495,
    "hiroshi": 26882,
    "reorganized": 14137,
    "adored": 28456,
    "good": 2204,
    "bullshit": 14636,
    "fender": 19028,
    "##orra": 24285,
    "absolute": 7619,
    "orleans": 5979,
    "bancroft": 29351,
    "h\u2082o": 24833,
    "mixes": 21109,
    "inhibitors": 25456,
    "arabian": 13771,
    "napoleonic": 18813,
    "reapers": 27733,
    "102": 9402,
    "increasing": 4852,
    "sean": 5977,
    "[unused908]": 913,
    "tis": 22320,
    "shillings": 29332,
    "caliphate": 28034,
    "##rdan": 26992,
    "scales": 9539,
    "fia": 19807,
    "orders": 4449,
    "sebastien": 28328,
    "##drich": 23335,
    "jack": 2990,
    "##hed": 9072,
    "status": 3570,
    "##ara": 5400,
    "variants": 10176,
    "time": 2051,
    "[unused409]": 414,
    "bergen": 12674,
    "doctor": 3460,
    "popping": 20095,
    "seasoned": 28223,
    "##\u05e0": 29803,
    "##pha": 21890,
    "##apple": 23804,
    "##adia": 25205,
    "##uppe": 29547,
    "##ioned": 19798,
    "severe": 5729,
    "calculus": 19276,
    "murmur": 20227,
    "projection": 13996,
    "mayfair": 28387,
    "headlines": 19377,
    "worshipped": 22876,
    "##\u30a7": 30223,
    "296": 27200,
    "naval": 3987,
    "vote": 3789,
    "##ban": 8193,
    "personally": 7714,
    "##tology": 23479,
    "autumn": 7114,
    "extent": 6698,
    "afc": 10511,
    "encyclopedia": 12204,
    "arnold": 7779,
    "marsden": 29558,
    "lesions": 22520,
    "tends": 12102,
    "1": 1015,
    "sections": 5433,
    "stating": 5517,
    "taxation": 14952,
    "leonard": 7723,
    "essence": 11305,
    "targeting": 14126,
    "alyssa": 26442,
    "jonathan": 5655,
    "[unused758]": 763,
    "318": 27003,
    "##dana": 25917,
    "degraded": 26131,
    "bites": 15424,
    "insulation": 25710,
    "slap": 14308,
    "##\u3044": 30173,
    "withdraw": 10632,
    "continent": 9983,
    "clung": 14752,
    "internacional": 27607,
    "reporter": 6398,
    "shamrock": 28782,
    "marquez": 27320,
    "literacy": 8433,
    "160": 8148,
    "conflicts": 9755,
    "spitting": 24307,
    "conservatory": 11879,
    "burn": 6402,
    "churches": 5231,
    "rooftop": 23308,
    "sexuality": 13798,
    "\u05dc": 1253,
    "stagecoach": 26025,
    "turbulent": 22609,
    "##taka": 28412,
    "indications": 24936,
    "thence": 23166,
    "furiously": 20322,
    "name": 2171,
    "##illy": 20577,
    "educational": 4547,
    "scholarships": 15691,
    "expressed": 5228,
    "solution": 5576,
    "almighty": 26668,
    "favored": 12287,
    "academy": 2914,
    "constitution": 4552,
    "genevieve": 20245,
    "##wn": 7962,
    "african": 3060,
    "barriers": 13500,
    "plump": 26731,
    "expert": 6739,
    "horton": 18469,
    "##aks": 29243,
    "domains": 13100,
    "##psy": 18075,
    "haven": 4033,
    "##skie": 23955,
    "122": 13092,
    "failing": 7989,
    "companion": 7452,
    "suffolk": 12291,
    "lowe": 14086,
    "##vik": 13309,
    "gal": 14891,
    "trademark": 11749,
    "[unused703]": 708,
    "##alla": 25425,
    "##\u06d2": 29846,
    "departed": 7745,
    "option": 5724,
    "verlag": 14552,
    "tick": 16356,
    "goldstein": 25507,
    "##\u00f8": 16415,
    "##kovsky": 23829,
    "##vision": 17084,
    "recruit": 13024,
    "germanic": 15139,
    "delays": 14350,
    "february": 2337,
    "slammed": 7549,
    "[unused447]": 452,
    "smirked": 18775,
    "##carbon": 26190,
    "few": 2261,
    "warlord": 16579,
    "burnham": 25295,
    "mostly": 3262,
    "\u671d": 1874,
    "islam": 7025,
    "november": 2281,
    "tortricidae": 27683,
    "jordan": 5207,
    "nj": 19193,
    "wellesley": 25658,
    "dormitory": 21538,
    "finely": 22126,
    "mutants": 23892,
    "305": 20405,
    "249": 23628,
    "##\u09ac": 29904,
    "puerto": 5984,
    "hierarchy": 12571,
    "\u03bf": 1169,
    "\u2297": 1613,
    "introductions": 25795,
    "##tical": 14656,
    "##utz": 20267,
    "beef": 12486,
    "pulling": 4815,
    "historian": 5272,
    "physiological": 19389,
    "ra": 10958,
    "##nco": 15305,
    "caught": 3236,
    "depends": 9041,
    "libel": 26201,
    "##rson": 17753,
    "contributes": 16605,
    "shack": 22200,
    "##nc": 12273,
    "losers": 23160,
    "otherwise": 4728,
    "williamsburg": 26366,
    "##\u0b95": 29918,
    "inflation": 14200,
    "terrace": 11134,
    "online": 3784,
    "couple": 3232,
    "##yi": 10139,
    "stark": 9762,
    "hawthorne": 23440,
    "[unused425]": 430,
    "petersburg": 8062,
    "##icient": 20132,
    "##rina": 11796,
    "dislike": 18959,
    "biological": 6897,
    "predicting": 29458,
    "queer": 19483,
    "rebound": 27755,
    "\u30a3": 1694,
    "skaters": 24789,
    "mendez": 28950,
    "arresting": 28427,
    "18": 2324,
    "peninsular": 22682,
    "voted": 5444,
    "halted": 12705,
    "##ki": 3211,
    "convoys": 23083,
    "ve": 2310,
    "uncles": 27328,
    "purposes": 5682,
    "##schaft": 26527,
    "rotated": 20931,
    "spectrum": 8674,
    "brant": 29182,
    "shrines": 22562,
    "abbess": 28010,
    "leto": 24543,
    "presenter": 10044,
    "concentrated": 8279,
    "graveyard": 16685,
    "playoff": 7808,
    "##lide": 24198,
    "intercepted": 16618,
    "biography": 8308,
    "dodge": 11898,
    "accomplished": 8885,
    "##com": 9006,
    "striker": 11854,
    "sudan": 10411,
    "peeking": 28222,
    "reaction": 4668,
    "##tric": 12412,
    "##cope": 16186,
    "doyle": 11294,
    "animals": 4176,
    "himself": 2370,
    "told": 2409,
    "traitor": 17328,
    "##sso": 24137,
    "honeymoon": 19227,
    "juliet": 13707,
    "##nzo": 25650,
    "a2": 22441,
    "retro": 22307,
    "indicted": 21801,
    "miniseries": 13612,
    "amar": 23204,
    "[unused408]": 413,
    "discrete": 16246,
    "40th": 16541,
    "dorm": 19568,
    "initially": 3322,
    "peasant": 14539,
    "appointment": 6098,
    "dickinson": 17590,
    "clerk": 7805,
    "tore": 9538,
    "vicious": 13925,
    "corridors": 17506,
    "##law": 14919,
    "##ils": 12146,
    "##or": 2953,
    "devil": 6548,
    "hare": 14263,
    "mango": 24792,
    "##born": 10280,
    "##\u0e07": 29946,
    "sui": 24086,
    "flirting": 20661,
    "##ssing": 18965,
    "\u6f22": 1904,
    "organism": 15923,
    "620": 23612,
    "bombay": 11831,
    "loads": 15665,
    "##horse": 23024,
    "garion": 12523,
    "haul": 14655,
    "davidson": 12017,
    "beauty": 5053,
    "netball": 25034,
    "96": 5986,
    "implies": 12748,
    "##ges": 8449,
    "710": 27671,
    "[unused838]": 843,
    "\u0649": 1299,
    "foothills": 18455,
    "\u85e4": 1944,
    "brad": 8226,
    "drawing": 5059,
    "espn": 10978,
    "ev": 23408,
    "gm": 13938,
    "guernsey": 24640,
    "##odon": 28716,
    "ethiopian": 15101,
    "collaborate": 20880,
    "frequency": 6075,
    "jorge": 10853,
    "##scan": 29378,
    "amara": 28599,
    "loneliness": 20334,
    "##\u1d43": 30032,
    "instructed": 10290,
    "densely": 19441,
    "formulas": 25814,
    "bracing": 25919,
    "macleod": 23075,
    "##\u026c": 29687,
    "postdoctoral": 29272,
    "reed": 7305,
    "spaceship": 25516,
    "usaf": 18531,
    "##\u00b0": 7737,
    "capitalism": 16498,
    "johor": 25268,
    "missionary": 8696,
    "##zer": 6290,
    "noticeable": 17725,
    "resulted": 4504,
    "fourier": 26899,
    "injuring": 22736,
    "fontana": 27182,
    "consumers": 10390,
    "\u0633": 1282,
    "hospital": 2902,
    "1844": 9730,
    "peppers": 23582,
    "speeds": 10898,
    "ferdinand": 9684,
    "outlet": 13307,
    "angola": 13491,
    "interact": 11835,
    "pa": 6643,
    "tony": 4116,
    "axel": 18586,
    "cope": 11997,
    "arise": 13368,
    "denial": 14920,
    "divinity": 16968,
    "requiring": 9034,
    "noel": 10716,
    "00": 4002,
    "avengers": 14936,
    "circa": 12800,
    "staten": 24161,
    "pictures": 4620,
    "teased": 13074,
    "stepping": 9085,
    "wraps": 19735,
    "cartoonist": 19659,
    "elgin": 23792,
    "recommendation": 12832,
    "bytes": 27507,
    "basal": 15191,
    "mayor": 3664,
    "vertebrae": 25517,
    "##tered": 14050,
    "##dav": 29045,
    "educators": 19156,
    "stills": 26105,
    "healthy": 7965,
    "roberta": 23455,
    "webb": 10923,
    "td": 14595,
    "##ddling": 21814,
    "chargers": 18649,
    "rhyme": 20622,
    "lamps": 14186,
    "waistband": 27553,
    "1776": 13963,
    "##crat": 23185,
    "##tter": 12079,
    "[unused900]": 905,
    "muttered": 6250,
    "intimidation": 28973,
    "brood": 25565,
    "millennia": 27620,
    "selena": 19166,
    "digit": 15340,
    "charges": 5571,
    "pia": 24624,
    "receiver": 8393,
    "clarence": 11805,
    "shoot": 5607,
    "commonplace": 27550,
    "outfit": 11018,
    "bulky": 27446,
    "##ject": 20614,
    "versa": 18601,
    "positions": 4460,
    "seater": 23392,
    "southernmost": 21787,
    "##ak": 4817,
    "##oning": 13369,
    "ajax": 18176,
    "blind": 6397,
    "grandson": 7631,
    "honey": 6861,
    "harley": 13653,
    "nolan": 13401,
    "responsive": 26651,
    "cell": 3526,
    "##stis": 29472,
    "av": 20704,
    "pixel": 22138,
    "published": 2405,
    "ramsey": 15092,
    "##gard": 13444,
    "danube": 16212,
    "persuasion": 27577,
    "##aghan": 26685,
    "303": 19988,
    "adjust": 14171,
    "[unused5]": 6,
    "airfield": 9087,
    "verge": 16079,
    "customized": 28749,
    "confronts": 17628,
    "[unused337]": 342,
    "##ark": 17007,
    "mitch": 11857,
    "putting": 5128,
    "xiang": 27735,
    "activate": 20544,
    "anyway": 4312,
    "##ks": 5705,
    "substrates": 23725,
    "[unused694]": 699,
    "frown": 11330,
    "##itas": 24317,
    "##gas": 12617,
    "[unused515]": 520,
    "cannes": 14775,
    "jerry": 6128,
    "eileen": 20495,
    "grande": 9026,
    "prolonged": 15330,
    "vanuatu": 27625,
    "##lberg": 22927,
    "future": 2925,
    "falcon": 11684,
    "azores": 28320,
    "suarez": 22551,
    "\u2609": 1622,
    "adolf": 12500,
    "parks": 6328,
    "perception": 10617,
    "yourselves": 25035,
    "##uated": 16453,
    "##foot": 13064,
    "mora": 26821,
    "bouquet": 26700,
    "motel": 14901,
    "##ajan": 28869,
    "negotiation": 19905,
    "dictionary": 9206,
    "##pel": 11880,
    "##\u044f": 17432,
    "genera": 11416,
    "sucked": 8631,
    ")": 1007,
    "wales": 3575,
    "##ption": 16790,
    "puddle": 25081,
    "navajo": 22440,
    "sons": 4124,
    "speculative": 23250,
    "afford": 8984,
    "##rum": 6824,
    "fauna": 15018,
    "wards": 11682,
    "##bf": 29292,
    "##hend": 22342,
    "spartak": 28560,
    "haas": 22996,
    "revolving": 24135,
    "secretly": 10082,
    "institution": 5145,
    "##ife": 29323,
    "420": 17442,
    "##tance": 26897,
    "bautista": 27845,
    "headquartered": 9403,
    "##listic": 27348,
    "avatar": 22128,
    "professions": 22797,
    "donors": 17843,
    "like": 2066,
    "cambodia": 12899,
    "variety": 3528,
    "[unused845]": 850,
    "tactics": 9887,
    "##\u099b": 29893,
    "##wide": 22517,
    "##lling": 13112,
    "causal": 28102,
    "[unused630]": 635,
    "missouri": 5284,
    "recounts": 23412,
    "outdoor": 7254,
    "##hyllum": 27750,
    "breath": 3052,
    "[unused243]": 248,
    "decreases": 17913,
    "rods": 19485,
    "##nd": 4859,
    "impulse": 14982,
    "airplay": 15341,
    "freiburg": 22871,
    "waterways": 21938,
    "##turing": 16037,
    "camp": 3409,
    "owes": 24381,
    "chuck": 8057,
    "privatization": 23966,
    "charlie": 4918,
    "##woman": 10169,
    "241": 22343,
    "receivers": 19278,
    "##rip": 29443,
    "character": 2839,
    "quicker": 19059,
    "650": 13757,
    "til": 18681,
    "linen": 17517,
    "vhs": 17550,
    "paintings": 5265,
    "##loid": 27710,
    "bulldog": 28628,
    "##ouring": 27897,
    "lennon": 14294,
    "blankets": 15019,
    "klaus": 16536,
    "##ibe": 20755,
    "dfb": 28894,
    "contractors": 16728,
    "\u0636": 1285,
    "agencies": 6736,
    "pipe": 8667,
    "infinite": 10709,
    "adds": 9909,
    "##jia": 26541,
    "caucus": 13965,
    "\u30fb": 1738,
    "bled": 23919,
    "amazing": 6429,
    "iaaf": 21259,
    "calling": 4214,
    "difference": 4489,
    "pinnacle": 26007,
    "raised": 2992,
    "shoving": 15866,
    "aggregate": 9572,
    "incorporated": 5100,
    "walls": 3681,
    "carts": 25568,
    "\uff1a": 1993,
    "mitochondrial": 23079,
    "fishing": 5645,
    "horticultural": 26235,
    "vernon": 11447,
    "experimented": 20918,
    "swan": 10677,
    "lands": 4915,
    "kaitlyn": 28584,
    "managing": 6605,
    "##xon": 22500,
    "significant": 3278,
    "harbour": 7440,
    "##rian": 6862,
    "##off": 7245,
    "##\u1107": 29996,
    "roaring": 17197,
    "##baum": 14898,
    "rutgers": 18607,
    "##\u0291": 29703,
    "cum": 13988,
    "dying": 5996,
    "vie": 20098,
    "witness": 7409,
    "petra": 20953,
    "celebration": 7401,
    "foreman": 18031,
    "##avio": 28471,
    "custer": 28888,
    "##uance": 26620,
    "filing": 15242,
    "##\u09a3": 29897,
    "helix": 25743,
    "send": 4604,
    "embroidery": 29507,
    "passage": 6019,
    "accommodations": 26167,
    "undergone": 17215,
    "tomas": 12675,
    "peru": 7304,
    "1603": 25625,
    "##cula": 19879,
    "browning": 18778,
    "\u209b": 1570,
    "##ring": 4892,
    "audience": 4378,
    "detail": 6987,
    "saturdays": 18860,
    "##n": 2078,
    "thriller": 10874,
    "pointed": 4197,
    "139": 16621,
    "##\u30b5": 30231,
    "eastern": 2789,
    "olivier": 14439,
    "arched": 9194,
    "tyrone": 18770,
    "institutional": 12148,
    "sawyer": 13975,
    "##lism": 28235,
    "erasmus": 26809,
    "stryker": 25429,
    "generates": 19421,
    "lac": 18749,
    "titans": 13785,
    "landmarks": 16209,
    "rarely": 6524,
    "dublin": 5772,
    "predators": 12630,
    "jersey": 3933,
    "scare": 12665,
    "cultures": 8578,
    "vigorous": 21813,
    "mare": 11941,
    "havoc": 22156,
    "risen": 13763,
    "showing": 4760,
    "derives": 12153,
    "contracts": 8311,
    "##k": 2243,
    "apparently": 4593,
    "##nta": 12380,
    "##tl": 19646,
    "##\u5973": 30341,
    "##ctions": 22014,
    "hair": 2606,
    "##nes": 5267,
    "specialised": 17009,
    "##\u30d2": 30245,
    "##ae": 6679,
    "misleading": 22369,
    "##ennial": 22929,
    "##kin": 4939,
    "croix": 18733,
    "focal": 15918,
    "constructions": 21913,
    "bessie": 29298,
    "##nsky": 25655,
    "haitian": 21404,
    "ph": 6887,
    "parachute": 13561,
    "wherever": 11210,
    "someday": 13834,
    "##pp": 9397,
    "##stor": 23809,
    "ness": 23384,
    "originals": 23728,
    "chloe": 9318,
    "emotionally": 14868,
    "herring": 22103,
    "##\u043a": 23925,
    "granada": 16553,
    "sigh": 6682,
    "surprisingly": 10889,
    "platoon": 13799,
    "malaysian": 11843,
    "muscled": 24909,
    "lips": 2970,
    "1942": 3758,
    "##id": 3593,
    "officially": 3985,
    "##xin": 20303,
    "##estinal": 19126,
    "honor": 3932,
    "horatio": 27752,
    "tel": 10093,
    "burden": 10859,
    "##\u0251": 29677,
    "responds": 16412,
    "stage": 2754,
    "uttered": 20947,
    "\u0621": 1269,
    "businessmen": 17353,
    "conservation": 5680,
    "[unused874]": 879,
    "brigades": 14589,
    "insignia": 16751,
    "cancellation": 16990,
    "chef": 10026,
    "markham": 26197,
    "sumo": 28193,
    "##tion": 3508,
    "articles": 4790,
    "[unused207]": 212,
    "##\u0441": 29747,
    "evangelist": 24036,
    "[unused217]": 222,
    "mri": 27011,
    "standing": 3061,
    "varies": 9783,
    "410": 19151,
    "intimately": 29024,
    "hayward": 21506,
    "210": 12875,
    "italian": 3059,
    "syracuse": 11736,
    "assassin": 12025,
    "understanding": 4824,
    "roundabout": 22831,
    "approached": 5411,
    "dim": 11737,
    "gunner": 14850,
    "##onus": 24891,
    "martyr": 17216,
    "haiti": 12867,
    "##llie": 23697,
    "dissolved": 8314,
    "attacker": 17346,
    "ferrer": 28390,
    "mukherjee": 27040,
    "overlooked": 17092,
    "##kir": 23630,
    "attractive": 8702,
    "##\u0b9f": 29920,
    "barking": 19372,
    "fabio": 25616,
    "lacks": 14087,
    "sas": 21871,
    "kosovo": 11491,
    "##thermal": 23367,
    "bird": 4743,
    "nine": 3157,
    "jiangsu": 28091,
    "##\u2081": 11871,
    "1624": 28531,
    "[unused277]": 282,
    "jocelyn": 23786,
    "supported": 3569,
    "abnormalities": 28828,
    "session": 5219,
    "stands": 4832,
    "nonprofit": 14495,
    "##ym": 24335,
    "lakeside": 28701,
    "botany": 17018,
    "composed": 3605,
    "damaging": 15011,
    "imaginary": 15344,
    "cyril": 16049,
    "\u2229": 1604,
    "trick": 7577,
    "anderson": 5143,
    "compressor": 29329,
    "nodding": 11863,
    "taxis": 25964,
    "##gative": 26792,
    "##sily": 26863,
    "philosophy": 4695,
    "##ub": 12083,
    "probe": 15113,
    "1728": 26833,
    "##app": 29098,
    "hawaiian": 12188,
    "[unused844]": 849,
    "overseeing": 19642,
    "prakash": 22233,
    "##girl": 15239,
    "school": 2082,
    "snowfall": 26043,
    "stole": 10312,
    "##sboro": 25623,
    "goat": 13555,
    "presley": 17229,
    "##strom": 15687,
    "[unused178]": 183,
    "##ha": 3270,
    "eugen": 29273,
    "subdivided": 15369,
    "useless": 11809,
    "hebrew": 6836,
    "allocation": 16169,
    "neolithic": 19061,
    "\u7af9": 1933,
    "1901": 5775,
    "saxophone": 8283,
    "flashes": 16121,
    "##urity": 25137,
    "josie": 15293,
    "##voking": 22776,
    "boiled": 17020,
    "raymond": 7638,
    "##roller": 26611,
    "verve": 29230,
    "##aries": 12086,
    "730": 28004,
    "egypt": 5279,
    "softly": 5238,
    "jenks": 15119,
    "stout": 18890,
    "bands": 4996,
    "omaha": 12864,
    "albania": 10407,
    "##\u25aa": 30145,
    "finnish": 6983,
    "stations": 3703,
    "addicted": 23042,
    "indochina": 27053,
    "##dhi": 19114,
    "##\u2030": 30065,
    "juventus": 22760,
    "\u0452": 1211,
    "##lo": 4135,
    "antonia": 24272,
    "##\u1019": 29973,
    "sized": 7451,
    "evening": 3944,
    "##\u300c": 30167,
    "freaking": 13847,
    "jen": 15419,
    "troop": 10123,
    "viewed": 7021,
    "lobby": 9568,
    "##rting": 24097,
    "were": 2020,
    "awkward": 9596,
    "##isch": 19946,
    "static": 10763,
    "##entation": 19304,
    "gold": 2751,
    "prosecution": 11537,
    "steer": 20634,
    "unbeaten": 20458,
    "sichuan": 20980,
    "capitol": 9424,
    "##wo": 12155,
    "temporary": 5741,
    "funk": 11962,
    "hanoi": 24809,
    "##at": 4017,
    "##anta": 26802,
    ":": 1024,
    "##ulus": 11627,
    "community": 2451,
    "steamship": 23869,
    "ua": 25423,
    "##tray": 28473,
    "racers": 25791,
    "[unused939]": 944,
    "arranged": 5412,
    "differ": 11234,
    "06": 5757,
    "electronics": 8139,
    "mughal": 17877,
    "1807": 13206,
    "##gaard": 18839,
    "coordinator": 10669,
    "detained": 14620,
    "monkey": 10608,
    "##tell": 23567,
    "malcolm": 8861,
    "innate": 25605,
    "circuit": 4984,
    "##iom": 18994,
    "crescent": 13152,
    "primate": 25662,
    "metabolism": 18089,
    "generals": 11593,
    "\u30db": 1722,
    "carthage": 21959,
    "inscriptions": 12920,
    "lowest": 7290,
    "achieving": 10910,
    "nils": 27282,
    "58": 5388,
    "##baldi": 28807,
    "gasoline": 13753,
    "nobel": 10501,
    "portraying": 17274,
    "[unused957]": 962,
    "shrimp": 20130,
    "confront": 14323,
    "defendant": 13474,
    "forth": 5743,
    "crook": 19302,
    "187": 19446,
    "indies": 9429,
    "tugging": 17100,
    "dime": 27211,
    "##eche": 27635,
    "##istle": 24242,
    "bypassed": 27539,
    "1667": 27643,
    "fungal": 28079,
    "spell": 6297,
    "hysteria": 29004,
    "##watch": 18866,
    "sticky": 15875,
    "##mbre": 19908,
    "1914": 4554,
    "sixty": 8442,
    "cynical": 26881,
    "ticking": 28561,
    "exited": 15284,
    "##az": 10936,
    "[unused69]": 70,
    "##ories": 18909,
    "1879": 7449,
    "everton": 18022,
    "gearbox": 22227,
    "1873": 7612,
    "nos": 16839,
    "akron": 22735,
    "smelled": 9557,
    "mongolian": 17855,
    "brandenburg": 16426,
    "negotiations": 7776,
    "guyana": 18786,
    "##no": 3630,
    "sexy": 7916,
    "viaduct": 20596,
    "lal": 21348,
    "broke": 3631,
    "heritage": 4348,
    "nme": 23770,
    "treasure": 8813,
    "leftist": 24247,
    "##q": 4160,
    "##vie": 13469,
    "\u00bf": 1094,
[...]
